{
  "version": "1.0",
  "truncation": null,
  "padding": null,
  "added_tokens": [
    {
      "id": 0,
      "content": "<pad>",
      "single_word": false,
      "lstrip": false,
      "rstrip": false,
      "normalized": false,
      "special": true
    },
    {
      "id": 1,
      "content": "<unk>",
      "single_word": false,
      "lstrip": false,
      "rstrip": false,
      "normalized": false,
      "special": true
    },
    {
      "id": 2,
      "content": "<bos>",
      "single_word": false,
      "lstrip": false,
      "rstrip": false,
      "normalized": false,
      "special": true
    },
    {
      "id": 3,
      "content": "<eos>",
      "single_word": false,
      "lstrip": false,
      "rstrip": false,
      "normalized": false,
      "special": true
    }
  ],
  "normalizer": null,
  "pre_tokenizer": {
    "type": "Whitespace"
  },
  "post_processor": {
    "type": "TemplateProcessing",
    "single": [
      {
        "SpecialToken": {
          "id": "<bos>",
          "type_id": 0
        }
      },
      {
        "Sequence": {
          "id": "A",
          "type_id": 0
        }
      },
      {
        "SpecialToken": {
          "id": "<eos>",
          "type_id": 0
        }
      }
    ],
    "pair": [
      {
        "Sequence": {
          "id": "A",
          "type_id": 0
        }
      },
      {
        "Sequence": {
          "id": "B",
          "type_id": 1
        }
      }
    ],
    "special_tokens": {
      "<bos>": {
        "id": "<bos>",
        "ids": [
          2
        ],
        "tokens": [
          "<bos>"
        ]
      },
      "<eos>": {
        "id": "<eos>",
        "ids": [
          3
        ],
        "tokens": [
          "<eos>"
        ]
      }
    }
  },
  "decoder": null,
  "model": {
    "type": "BPE",
    "dropout": null,
    "unk_token": "<unk>",
    "continuing_subword_prefix": null,
    "end_of_word_suffix": null,
    "fuse_unk": false,
    "byte_fallback": false,
    "ignore_merges": false,
    "vocab": {
      "<pad>": 0,
      "<unk>": 1,
      "<bos>": 2,
      "<eos>": 3,
      "!": 4,
      "\"": 5,
      "#": 6,
      "$": 7,
      "%": 8,
      "&": 9,
      "'": 10,
      "(": 11,
      ")": 12,
      "*": 13,
      "+": 14,
      ",": 15,
      "-": 16,
      ".": 17,
      "/": 18,
      "0": 19,
      "1": 20,
      "2": 21,
      "3": 22,
      "4": 23,
      "5": 24,
      "6": 25,
      "7": 26,
      "8": 27,
      "9": 28,
      ":": 29,
      ";": 30,
      "<": 31,
      "=": 32,
      ">": 33,
      "?": 34,
      "@": 35,
      "A": 36,
      "B": 37,
      "C": 38,
      "D": 39,
      "E": 40,
      "F": 41,
      "G": 42,
      "H": 43,
      "I": 44,
      "J": 45,
      "K": 46,
      "L": 47,
      "M": 48,
      "N": 49,
      "O": 50,
      "P": 51,
      "Q": 52,
      "R": 53,
      "S": 54,
      "T": 55,
      "U": 56,
      "V": 57,
      "W": 58,
      "X": 59,
      "Y": 60,
      "Z": 61,
      "[": 62,
      "\\": 63,
      "]": 64,
      "^": 65,
      "_": 66,
      "`": 67,
      "a": 68,
      "b": 69,
      "c": 70,
      "d": 71,
      "e": 72,
      "f": 73,
      "g": 74,
      "h": 75,
      "i": 76,
      "j": 77,
      "k": 78,
      "l": 79,
      "m": 80,
      "n": 81,
      "o": 82,
      "p": 83,
      "q": 84,
      "r": 85,
      "s": 86,
      "t": 87,
      "u": 88,
      "v": 89,
      "w": 90,
      "x": 91,
      "y": 92,
      "z": 93,
      "{": 94,
      "|": 95,
      "}": 96,
      "~": 97,
      "th": 98,
      "in": 99,
      "an": 100,
      "er": 101,
      "on": 102,
      "the": 103,
      "ti": 104,
      "en": 105,
      "re": 106,
      "al": 107,
      "or": 108,
      "is": 109,
      "es": 110,
      "of": 111,
      "ed": 112,
      "at": 113,
      "ar": 114,
      "and": 115,
      "tion": 116,
      "as": 117,
      "ic": 118,
      "le": 119,
      "ing": 120,
      "st": 121,
      "ro": 122,
      "to": 123,
      "it": 124,
      "<<": 125,
      ">>": 126,
      "ent": 127,
      "ac": 128,
      "el": 129,
      "ation": 130,
      "om": 131,
      "ol": 132,
      "ou": 133,
      "ec": 134,
      "he": 135,
      "se": 136,
      "de": 137,
      "il": 138,
      "for": 139,
      "ch": 140,
      "ter": 141,
      "am": 142,
      "pl": 143,
      "si": 144,
      "tr": 145,
      "<<<<": 146,
      ">>>>": 147,
      "ul": 148,
      "be": 149,
      "ce": 150,
      "ay": 151,
      "ve": 152,
      "ly": 153,
      "pro": 154,
      "di": 155,
      "un": 156,
      "ur": 157,
      "con": 158,
      "ver": 159,
      "The": 160,
      "tic": 161,
      "ap": 162,
      "mo": 163,
      "um": 164,
      "dis": 165,
      "wi": 166,
      "ig": 167,
      "res": 168,
      "ab": 169,
      "ow": 170,
      "are": 171,
      "that": 172,
      "im": 173,
      "us": 174,
      "ex": 175,
      "ir": 176,
      "wh": 177,
      "ts": 178,
      "ad": 179,
      "{\\": 180,
      "em": 181,
      "op": 182,
      "ag": 183,
      "qu": 184,
      "by": 185,
      "su": 186,
      "og": 187,
      "with": 188,
      "ment": 189,
      "com": 190,
      "ity": 191,
      "ther": 192,
      "ot": 193,
      "id": 194,
      "ma": 195,
      "In": 196,
      "sp": 197,
      "20": 198,
      "ci": 199,
      "ate": 200,
      "play": 201,
      "ri": 202,
      "me": 203,
      "uc": 204,
      "per": 205,
      "19": 206,
      "ut": 207,
      "so": 208,
      "cl": 209,
      "<<<<<<<<": 210,
      ">>>>>>>>": 211,
      "sty": 212,
      "all": 213,
      "ical": 214,
      "style": 215,
      "display": 216,
      "ge": 217,
      "ph": 218,
      "displaystyle": 219,
      "der": 220,
      "os": 221,
      "ain": 222,
      "ne": 223,
      "rom": 224,
      "ist": 225,
      "li": 226,
      "par": 227,
      "was": 228,
      "ff": 229,
      "oun": 230,
      "ere": 231,
      "ich": 232,
      "ant": 233,
      "ure": 234,
      "ell": 235,
      "od": 236,
      "olog": 237,
      "from": 238,
      "ine": 239,
      "ated": 240,
      "ces": 241,
      "gen": 242,
      "ers": 243,
      "igh": 244,
      "ory": 245,
      "form": 246,
      "ies": 247,
      "}}": 248,
      "Th": 249,
      "ence": 250,
      "oc": 251,
      "sh": 252,
      "str": 253,
      "ha": 254,
      "te": 255,
      "which": 256,
      "tw": 257,
      "sy": 258,
      "comp": 259,
      "ations": 260,
      "can": 261,
      "et": 262,
      "ati": 263,
      "vel": 264,
      "ans": 265,
      "vi": 266,
      "ect": 267,
      "00": 268,
      "ary": 269,
      "ore": 270,
      "over": 271,
      "ang": 272,
      "est": 273,
      "ome": 274,
      "ra": 275,
      "ber": 276,
      "tions": 277,
      "ud": 278,
      "lec": 279,
      "if": 280,
      "Ch": 281,
      "not": 282,
      "sion": 283,
      "iz": 284,
      "man": 285,
      ").": 286,
      "up": 287,
      "ally": 288,
      "pe": 289,
      "end": 290,
      "one": 291,
      "ld": 292,
      "po": 293,
      "ort": 294,
      "our": 295,
      "ion": 296,
      "ev": 297,
      "duc": 298,
      "gh": 299,
      "its": 300,
      "ous": 301,
      "ia": 302,
      "au": 303,
      "enti": 304,
      "ach": 305,
      "ard": 306,
      "act": 307,
      "bl": 308,
      "have": 309,
      "other": 310,
      "pres": 311,
      "able": 312,
      "also": 313,
      "pr": 314,
      "ke": 315,
      "ass": 316,
      "ess": 317,
      "wor": 318,
      "ology": 319,
      "rec": 320,
      "gr": 321,
      "inter": 322,
      "out": 323,
      "ance": 324,
      "has": 325,
      "ob": 326,
      "stem": 327,
      "ty": 328,
      "<<<<<<<<<<<<<<<<": 329,
      ">>>>>>>>>>>>>>>>": 330,
      "ates": 331,
      "ial": 332,
      "ish": 333,
      "ech": 334,
      "ong": 335,
      "ame": 336,
      "ip": 337,
      "int": 338,
      "ace": 339,
      "cont": 340,
      "age": 341,
      "this": 342,
      "),": 343,
      "ill": 344,
      "ys": 345,
      "fi": 346,
      "ase": 347,
      "ear": 348,
      "ational": 349,
      "iv": 350,
      "cre": 351,
      "co": 352,
      "rel": 353,
      "ple": 354,
      "ult": 355,
      "such": 356,
      "ight": 357,
      "ib": 358,
      "fin": 359,
      "were": 360,
      "ties": 361,
      "ari": 362,
      "pre": 363,
      "ms": 364,
      "ew": 365,
      "ents": 366,
      "bo": 367,
      "ors": 368,
      "their": 369,
      "ound": 370,
      "own": 371,
      "fer": 372,
      "ak": 373,
      "gro": 374,
      "tive": 375,
      "av": 376,
      "Un": 377,
      "spec": 378,
      "201": 379,
      "fun": 380,
      "ics": 381,
      "des": 382,
      "br": 383,
      "ular": 384,
      "ser": 385,
      "tical": 386,
      "ks": 387,
      "port": 388,
      "mon": 389,
      "system": 390,
      "Re": 391,
      "pol": 392,
      "bi": 393,
      "cell": 394,
      "du": 395,
      "hy": 396,
      "incl": 397,
      "used": 398,
      "ble": 399,
      "ater": 400,
      "ted": 401,
      "fr": 402,
      "An": 403,
      "St": 404,
      "reg": 405,
      "low": 406,
      "200": 407,
      "ast": 408,
      "cri": 409,
      "This": 410,
      "diff": 411,
      "ten": 412,
      "ution": 413,
      "org": 414,
      "del": 415,
      "velop": 416,
      "more": 417,
      "trans": 418,
      "ack": 419,
      "cent": 420,
      "ding": 421,
      "min": 422,
      "ould": 423,
      "ree": 424,
      "pt": 425,
      "mer": 426,
      "fic": 427,
      "been": 428,
      "tern": 429,
      "soci": 430,
      "cy": 431,
      "but": 432,
      "eld": 433,
      "cess": 434,
      "arch": 435,
      "10": 436,
      "sub": 437,
      "ual": 438,
      "irst": 439,
      "It": 440,
      "ian": 441,
      "gener": 442,
      "ative": 443,
      "num": 444,
      "do": 445,
      "pos": 446,
      "ism": 447,
      "ite": 448,
      "equ": 449,
      "ins": 450,
      "val": 451,
      "func": 452,
      "ust": 453,
      "cor": 454,
      "some": 455,
      "ever": 456,
      "tim": 457,
      "develop": 458,
      "try": 459,
      "fl": 460,
      "een": 461,
      "erg": 462,
      "col": 463,
      "ubl": 464,
      "Ar": 465,
      "ta": 466,
      "^{": 467,
      "18": 468,
      "aw": 469,
      "tics": 470,
      "differ": 471,
      "ond": 472,
      "ased": 473,
      "two": 474,
      "first": 475,
      "AR": 476,
      "no": 477,
      "set": 478,
      "elec": 479,
      "coun": 480,
      "les": 481,
      "tween": 482,
      "produc": 483,
      "ugh": 484,
      "thro": 485,
      "cur": 486,
      "vari": 487,
      "into": 488,
      "iver": 489,
      "Al": 490,
      "bec": 491,
      "theory": 492,
      "echn": 493,
      "between": 494,
      "time": 495,
      "partic": 496,
      "En": 497,
      "IC": 498,
      "we": 499,
      "than": 500,
      "eff": 501,
      "ons": 502,
      "ting": 503,
      "LE": 504,
      "use": 505,
      "ments": 506,
      "fe": 507,
      "under": 508,
      "ating": 509,
      "istory": 510,
      "sc": 511,
      "ext": 512,
      "NA": 513,
      "ely": 514,
      "struc": 515,
      "antum": 516,
      "any": 517,
      "Com": 518,
      "ign": 519,
      "math": 520,
      "ose": 521,
      "NT": 522,
      "ves": 523,
      "ences": 524,
      "most": 525,
      "ood": 526,
      "land": 527,
      "ural": 528,
      "\".": 529,
      "ens": 530,
      "they": 531,
      "where": 532,
      "kn": 533,
      "may": 534,
      "ue": 535,
      "ited": 536,
      "red": 537,
      "ART": 538,
      "mil": 539,
      "ility": 540,
      "ved": 541,
      "ICLE": 542,
      "ARTICLE": 543,
      "vir": 544,
      "publ": 545,
      "vol": 546,
      "sig": 547,
      "ese": 548,
      "resp": 549,
      "als": 550,
      "sol": 551,
      "med": 552,
      "includ": 553,
      "vid": 554,
      "there": 555,
      "ature": 556,
      "mun": 557,
      "ological": 558,
      "dec": 559,
      "model": 560,
      "sec": 561,
      "cer": 562,
      "his": 563,
      "these": 564,
      "lar": 565,
      "order": 566,
      "ergy": 567,
      "uring": 568,
      "field": 569,
      "work": 570,
      "tra": 571,
      "alth": 572,
      "many": 573,
      "mis": 574,
      "ath": 575,
      "ran": 576,
      "ren": 577,
      "exam": 578,
      "yn": 579,
      "eng": 580,
      "high": 581,
      "ile": 582,
      "line": 583,
      "ific": 584,
      "fore": 585,
      "group": 586,
      "ind": 587,
      "ures": 588,
      "CO": 589,
      "ann": 590,
      "through": 591,
      "199": 592,
      "sign": 593,
      "For": 594,
      "ough": 595,
      "apter": 596,
      "had": 597,
      "tit": 598,
      "rap": 599,
      "De": 600,
      "OR": 601,
      "only": 602,
      "ps": 603,
      "comple": 604,
      "sci": 605,
      "dition": 606,
      "function": 607,
      "way": 608,
      "old": 609,
      "number": 610,
      "ok": 611,
      "vis": 612,
      "uman": 613,
      "af": 614,
      "stud": 615,
      "Con": 616,
      "tain": 617,
      "cr": 618,
      "Chapter": 619,
      "gl": 620,
      "organ": 621,
      "who": 622,
      "present": 623,
      "oper": 624,
      "lin": 625,
      "ice": 626,
      "por": 627,
      "energy": 628,
      "uro": 629,
      "ization": 630,
      "plic": 631,
      "wik": 632,
      "ress": 633,
      "mar": 634,
      "process": 635,
      "overn": 636,
      "ven": 637,
      "ects": 638,
      "17": 639,
      "meth": 640,
      "<<<<<<<<<<<<<<<<<<<<<<<<<<<<<<<<": 641,
      ">>>>>>>>>>>>>>>>>>>>>>>>>>>>>>>>": 642,
      "acti": 643,
      "anti": 644,
      "dep": 645,
      "then": 646,
      "ized": 647,
      "fact": 648,
      "mat": 649,
      "ator": 650,
      "ug": 651,
      "ily": 652,
      "fol": 653,
      "requ": 654,
      "AI": 655,
      "ulation": 656,
      "sur": 657,
      "rit": 658,
      "quantum": 659,
      "ases": 660,
      "new": 661,
      "call": 662,
      "state": 663,
      "Ph": 664,
      "phys": 665,
      "sequ": 666,
      "loc": 667,
      "reat": 668,
      "techn": 669,
      "year": 670,
      "ving": 671,
      "ene": 672,
      "ide": 673,
      "ful": 674,
      "mental": 675,
      "As": 676,
      "lo": 677,
      "part": 678,
      "char": 679,
      "incre": 680,
      "Pro": 681,
      "ID": 682,
      "when": 683,
      "ability": 684,
      "202": 685,
      "led": 686,
      "cons": 687,
      "well": 688,
      "ris": 689,
      "meric": 690,
      "lang": 691,
      "ep": 692,
      "action": 693,
      "known": 694,
      "trib": 695,
      "ential": 696,
      "her": 697,
      "onom": 698,
      "che": 699,
      "viron": 700,
      "air": 701,
      "Americ": 702,
      "men": 703,
      "IS": 704,
      "formation": 705,
      "He": 706,
      "}\\": 707,
      "anal": 708,
      "Se": 709,
      "pop": 710,
      "non": 711,
      "000": 712,
      "Ac": 713,
      "search": 714,
      "appro": 715,
      "struct": 716,
      "space": 717,
      "ause": 718,
      "prote": 719,
      "Ex": 720,
      "king": 721,
      "und": 722,
      "15": 723,
      "tric": 724,
      "example": 725,
      "sup": 726,
      "gene": 727,
      "cal": 728,
      "would": 729,
      "study": 730,
      "direc": 731,
      "ord": 732,
      "bin": 733,
      "govern": 734,
      "ivers": 735,
      "art": 736,
      "will": 737,
      "att": 738,
      "defin": 739,
      "peri": 740,
      "ince": 741,
      "sing": 742,
      "cells": 743,
      "ages": 744,
      "So": 745,
      "til": 746,
      "found": 747,
      "each": 748,
      "called": 749,
      "ie": 750,
      "mem": 751,
      "DNA": 752,
      "owever": 753,
      "ft": 754,
      "ities": 755,
      "posi": 756,
      "different": 757,
      "ality": 758,
      "yl": 759,
      "using": 760,
      "ters": 761,
      "ject": 762,
      "dat": 763,
      "ists": 764,
      ")}": 765,
      "edia": 766,
      "depend": 767,
      "mic": 768,
      "16": 769,
      "vity": 770,
      "ced": 771,
      "dom": 772,
      "ude": 773,
      "ograp": 774,
      "..": 775,
      "car": 776,
      "thema": 777,
      "D_": 778,
      "exp": 779,
      "human": 780,
      "echan": 781,
      "ition": 782,
      "including": 783,
      "public": 784,
      "serv": 785,
      "ished": 786,
      "12": 787,
      "ith": 788,
      "Wh": 789,
      "based": 790,
      "son": 791,
      "giv": 792,
      "grap": 793,
      "stand": 794,
      "cept": 795,
      "about": 796,
      "rol": 797,
      "follow": 798,
      "research": 799,
      "ning": 800,
      "both": 801,
      "sym": 802,
      "right": 803,
      "langu": 804,
      "14": 805,
      "cap": 806,
      "ury": 807,
      "being": 808,
      "ically": 809,
      "bers": 810,
      "fil": 811,
      "dies": 812,
      "AT": 813,
      "pow": 814,
      "ARTICLE_": 815,
      "ption": 816,
      "ele": 817,
      "lim": 818,
      "after": 819,
      "descri": 820,
      "198": 821,
      "method": 822,
      "meas": 823,
      "Sp": 824,
      "ost": 825,
      "ople": 826,
      "sm": 827,
      "Par": 828,
      "mal": 829,
      "lear": 830,
      "mathb": 831,
      "197": 832,
      "like": 833,
      "during": 834,
      "same": 835,
      "United": 836,
      "level": 837,
      "plan": 838,
      "view": 839,
      "acter": 840,
      "environ": 841,
      "mechan": 842,
      "History": 843,
      "Ma": 844,
      "ied": 845,
      "ange": 846,
      "sible": 847,
      "ement": 848,
      "dr": 849,
      "ton": 850,
      "Euro": 851,
      "divid": 852,
      "systems": 853,
      "sim": 854,
      "ship": 855,
      "lead": 856,
      "contin": 857,
      "class": 858,
      "New": 859,
      "world": 860,
      "theore": 861,
      "often": 862,
      "CE": 863,
      "iti": 864,
      "Bi": 865,
      "top": 866,
      "ental": 867,
      "ae": 868,
      "health": 869,
      "orig": 870,
      "ety": 871,
      "ions": 872,
      "ually": 873,
      "Europe": 874,
      "tt": 875,
      "13": 876,
      "ros": 877,
      "ste": 878,
      "ire": 879,
      "elf": 880,
      "sider": 881,
      "iter": 882,
      "Ge": 883,
      "main": 884,
      "flu": 885,
      "ently": 886,
      "ca": 887,
      "evol": 888,
      "them": 889,
      "term": 890,
      "national": 891,
      "cover": 892,
      "econom": 893,
      "point": 894,
      "Le": 895,
      "ail": 896,
      "Chin": 897,
      "bel": 898,
      "gram": 899,
      "cult": 900,
      "ise": 901,
      "ici": 902,
      "states": 903,
      "vely": 904,
      "power": 905,
      "result": 906,
      "frac": 907,
      "while": 908,
      "ward": 909,
      "development": 910,
      "ub": 911,
      "proble": 912,
      "expres": 913,
      "go": 914,
      "allow": 915,
      "read": 916,
      "people": 917,
      "ork": 918,
      "origin": 919,
      "light": 920,
      "beg": 921,
      "Ger": 922,
      "species": 923,
      "data": 924,
      "general": 925,
      "ove": 926,
      "These": 927,
      "iversity": 928,
      "war": 929,
      "mi": 930,
      "history": 931,
      "sive": 932,
      "cho": 933,
      "graph": 934,
      "ulti": 935,
      "consider": 936,
      "ger": 937,
      "ale": 938,
      "tor": 939,
      "century": 940,
      "196": 941,
      "ute": 942,
      "change": 943,
      "pho": 944,
      "dic": 945,
      "gu": 946,
      "import": 947,
      "ples": 948,
      "respon": 949,
      "ry": 950,
      "times": 951,
      "within": 952,
      "ateg": 953,
      "ild": 954,
      "oy": 955,
      "less": 956,
      "nor": 957,
      "tal": 958,
      "ave": 959,
      "government": 960,
      "ection": 961,
      "though": 962,
      "oh": 963,
      "ings": 964,
      "\",": 965,
      "social": 966,
      "inte": 967,
      "electr": 968,
      "However": 969,
      "dyn": 970,
      "commun": 971,
      "three": 972,
      "30": 973,
      "ected": 974,
      "Mar": 975,
      "SO": 976,
      "tran": 977,
      "include": 978,
      "tur": 979,
      "left": 980,
      "la": 981,
      "uch": 982,
      "ze": 983,
      "ysis": 984,
      "Qu": 985,
      "represent": 986,
      "law": 987,
      "rang": 988,
      "typ": 989,
      "complex": 990,
      "stu": 991,
      "proper": 992,
      "BN": 993,
      "American": 994,
      "On": 995,
      "ency": 996,
      "my": 997,
      ".\"": 998,
      "University": 999,
      "show": 1000,
      "given": 1001,
      "ferences": 1002,
      "small": 1003,
      "lion": 1004,
      "omen": 1005,
      "back": 1006,
      "pot": 1007,
      "//": 1008,
      "cial": 1009,
      "}}}": 1010,
      "bu": 1011,
      "invol": 1012,
      "EG": 1013,
      "aff": 1014,
      "ices": 1015,
      "ISBN": 1016,
      "ames": 1017,
      "There": 1018,
      "inc": 1019,
      "prim": 1020,
      "ital": 1021,
      "nal": 1022,
      "ner": 1023,
      "sions": 1024,
      "control": 1025,
      "://": 1026,
      "htt": 1027,
      "poli": 1028,
      "row": 1029,
      "iev": 1030,
      "exper": 1031,
      "common": 1032,
      "OM": 1033,
      "large": 1034,
      "ND": 1035,
      "War": 1036,
      "years": 1037,
      "pri": 1038,
      "50": 1039,
      "made": 1040,
      "sis": 1041,
      "Sci": 1042,
      "particular": 1043,
      "dividual": 1044,
      "tem": 1045,
      "could": 1046,
      "97": 1047,
      "Nor": 1048,
      "States": 1049,
      "molec": 1050,
      "water": 1051,
      "Wor": 1052,
      "identi": 1053,
      "ights": 1054,
      "due": 1055,
      "mit": 1056,
      "side": 1057,
      "evolution": 1058,
      "acy": 1059,
      "WI": 1060,
      "ography": 1061,
      "long": 1062,
      "writ": 1063,
      "Ne": 1064,
      "https": 1065,
      "UR": 1066,
      "chang": 1067,
      "Pol": 1068,
      "iqu": 1069,
      "sever": 1070,
      "I_": 1071,
      "real": 1072,
      "Tr": 1073,
      "jor": 1074,
      "leg": 1075,
      "grow": 1076,
      "termin": 1077,
      "fam": 1078,
      "ories": 1079,
      "OF": 1080,
      "eral": 1081,
      "perform": 1082,
      "ipedia": 1083,
      "continu": 1084,
      "multi": 1085,
      "dynam": 1086,
      "atural": 1087,
      "because": 1088,
      "individual": 1089,
      "CAT": 1090,
      "tries": 1091,
      "tro": 1092,
      "measure": 1093,
      "atis": 1094,
      "bas": 1095,
      "den": 1096,
      "sph": 1097,
      "END": 1098,
      "wiki": 1099,
      "program": 1100,
      ".,": 1101,
      "log": 1102,
      "DOM": 1103,
      "second": 1104,
      "occur": 1105,
      "AIN": 1106,
      "put": 1107,
      "UNT": 1108,
      "ox": 1109,
      "WOR": 1110,
      "wikipedia": 1111,
      "SOUR": 1112,
      "SOURCE": 1113,
      "COUNT": 1114,
      "ORY": 1115,
      "WIK": 1116,
      "DOMAIN": 1117,
      "<<<<<<<<<<<<<<<<<<": 1118,
      ">>>>>>>>>>>>>>>>>>": 1119,
      "<<<<<<<<<<<<<<<<<<<<<<<<<<<<<<<<<<<<<<<<<<<<<<<<<<": 1120,
      ">>>>>>>>>>>>>>>>>>>>>>>>>>>>>>>>>>>>>>>>>>>>>>>>>>": 1121,
      "D_COUNT": 1122,
      "ARTICLE_ID": 1123,
      "EGORY": 1124,
      "CATEGORY": 1125,
      "WORD_COUNT": 1126,
      "WIKI_": 1127,
      "urther": 1128,
      "dro": 1129,
      "abl": 1130,
      "day": 1131,
      "science": 1132,
      "ived": 1133,
      "amp": 1134,
      "language": 1135,
      "related": 1136,
      "ering": 1137,
      "uses": 1138,
      "Ad": 1139,
      "bed": 1140,
      "ane": 1141,
      "relation": 1142,
      "ik": 1143,
      "dern": 1144,
      "dimen": 1145,
      "isms": 1146,
      "outh": 1147,
      "those": 1148,
      "associ": 1149,
      "cle": 1150,
      "ade": 1151,
      "dist": 1152,
      "ector": 1153,
      "Is": 1154,
      "information": 1155,
      "period": 1156,
      "ared": 1157,
      "life": 1158,
      "protein": 1159,
      "need": 1160,
      "move": 1161,
      "structure": 1162,
      "ody": 1163,
      "References": 1164,
      "fac": 1165,
      "11": 1166,
      "hist": 1167,
      "design": 1168,
      "II": 1169,
      "text": 1170,
      "World": 1171,
      "arge": 1172,
      "face": 1173,
      "mical": 1174,
      "):": 1175,
      "ants": 1176,
      "syn": 1177,
      "hel": 1178,
      "off": 1179,
      "mark": 1180,
      "mathema": 1181,
      "again": 1182,
      "centr": 1183,
      "actions": 1184,
      "lab": 1185,
      "early": 1186,
      "simil": 1187,
      "expl": 1188,
      "xim": 1189,
      "rele": 1190,
      "exist": 1191,
      "mus": 1192,
      "case": 1193,
      "sts": 1194,
      "indu": 1195,
      "contain": 1196,
      "gra": 1197,
      "Gen": 1198,
      "very": 1199,
      "dise": 1200,
      "specific": 1201,
      "ness": 1202,
      "important": 1203,
      "even": 1204,
      "provid": 1205,
      "inf": 1206,
      "experim": 1207,
      "ines": 1208,
      "Sh": 1209,
      "Mo": 1210,
      "Indi": 1211,
      "direct": 1212,
      "Pr": 1213,
      "bro": 1214,
      "major": 1215,
      "ross": 1216,
      "National": 1217,
      "orph": 1218,
      "duced": 1219,
      "vide": 1220,
      "support": 1221,
      "since": 1222,
      "bre": 1223,
      "path": 1224,
      "analysis": 1225,
      "ficial": 1226,
      "sum": 1227,
      "plac": 1228,
      "appe": 1229,
      "Res": 1230,
      "gest": 1231,
      "ances": 1232,
      "gre": 1233,
      "Pl": 1234,
      "Bo": 1235,
      "posed": 1236,
      "ired": 1237,
      "theorem": 1238,
      "sk": 1239,
      "Can": 1240,
      "see": 1241,
      "mathbf": 1242,
      "adv": 1243,
      "transl": 1244,
      "ref": 1245,
      "now": 1246,
      "nuc": 1247,
      "pi": 1248,
      "aim": 1249,
      "how": 1250,
      "ogn": 1251,
      "ive": 1252,
      "0s": 1253,
      "establ": 1254,
      "mut": 1255,
      "194": 1256,
      "inci": 1257,
      "sia": 1258,
      "ules": 1259,
      "several": 1260,
      "ax": 1261,
      "ban": 1262,
      "utions": 1263,
      "ues": 1264,
      "ric": 1265,
      "havi": 1266,
      "every": 1267,
      "tes": 1268,
      "ply": 1269,
      "tak": 1270,
      "ds": 1271,
      "possible": 1272,
      "Or": 1273,
      "Ear": 1274,
      "bra": 1275,
      "character": 1276,
      "similar": 1277,
      "vers": 1278,
      "position": 1279,
      "atom": 1280,
      "ways": 1281,
      "functions": 1282,
      "aid": 1283,
      "ock": 1284,
      "ember": 1285,
      "local": 1286,
      "cording": 1287,
      "certain": 1288,
      "body": 1289,
      "natural": 1290,
      "}(": 1291,
      "developed": 1292,
      "distrib": 1293,
      "combin": 1294,
      "parti": 1295,
      "ges": 1296,
      "suc": 1297,
      "physical": 1298,
      "type": 1299,
      "political": 1300,
      "scienti": 1301,
      "countries": 1302,
      "fied": 1303,
      "If": 1304,
      "star": 1305,
      "ov": 1306,
      "dam": 1307,
      "pat": 1308,
      "ditional": 1309,
      "25": 1310,
      "integr": 1311,
      "tish": 1312,
      "stri": 1313,
      "approach": 1314,
      "signific": 1315,
      "ators": 1316,
      "defined": 1317,
      "population": 1318,
      "polic": 1319,
      "aterial": 1320,
      "ones": 1321,
      "ults": 1322,
      "influ": 1323,
      "single": 1324,
      "ystem": 1325,
      "following": 1326,
      "Joh": 1327,
      "refer": 1328,
      "obal": 1329,
      "sid": 1330,
      "region": 1331,
      "behavi": 1332,
      "utr": 1333,
      "intro": 1334,
      "liter": 1335,
      "met": 1336,
      "atic": 1337,
      "later": 1338,
      "ditions": 1339,
      "=\\": 1340,
      "Col": 1341,
      "Cl": 1342,
      "sen": 1343,
      "netw": 1344,
      "ym": 1345,
      "Au": 1346,
      "sure": 1347,
      "ieved": 1348,
      "Car": 1349,
      "oph": 1350,
      "physics": 1351,
      "Bri": 1352,
      "ah": 1353,
      "ources": 1354,
      "acc": 1355,
      "around": 1356,
      "inv": 1357,
      "Be": 1358,
      "initi": 1359,
      "mistry": 1360,
      "rench": 1361,
      "ective": 1362,
      "sional": 1363,
      "app": 1364,
      "groups": 1365,
      "duce": 1366,
      "They": 1367,
      "super": 1368,
      "22": 1369,
      "conn": 1370,
      "EC": 1371,
      "sed": 1372,
      "Di": 1373,
      "Intern": 1374,
      "production": 1375,
      "fric": 1376,
      "various": 1377,
      "onic": 1378,
      "spe": 1379,
      "symme": 1380,
      "French": 1381,
      "doi": 1382,
      "uary": 1383,
      "must": 1384,
      "forms": 1385,
      "equation": 1386,
      "cul": 1387,
      ",\\": 1388,
      "models": 1389,
      "bar": 1390,
      "pur": 1391,
      "applic": 1392,
      "jects": 1393,
      "els": 1394,
      "test": 1395,
      "istic": 1396,
      "cour": 1397,
      "}}\\": 1398,
      "sequence": 1399,
      "ash": 1400,
      "down": 1401,
      "See": 1402,
      "ended": 1403,
      "sian": 1404,
      "ENT": 1405,
      "US": 1406,
      "four": 1407,
      "place": 1408,
      "open": 1409,
      "We": 1410,
      "auth": 1411,
      "film": 1412,
      "phen": 1413,
      "clos": 1414,
      "ick": 1415,
      "978": 1416,
      "curr": 1417,
      "Afric": 1418,
      "China": 1419,
      ")\\": 1420,
      "ru": 1421,
      "CONT": 1422,
      "Co": 1423,
      "Some": 1424,
      "ols": 1425,
      "report": 1426,
      "CONTENT": 1427,
      "person": 1428,
      "imp": 1429,
      "against": 1430,
      "ately": 1431,
      "itary": 1432,
      "value": 1433,
      "IA": 1434,
      "sit": 1435,
      "prob": 1436,
      "studies": 1437,
      "among": 1438,
      "targe": 1439,
      "treat": 1440,
      "mass": 1441,
      "radi": 1442,
      "European": 1443,
      "Fr": 1444,
      "area": 1445,
      "Me": 1446,
      "modern": 1447,
      "hib": 1448,
      "potential": 1449,
      "comput": 1450,
      "International": 1451,
      "what": 1452,
      "effici": 1453,
      "ai": 1454,
      "gebra": 1455,
      "sych": 1456,
      "prof": 1457,
      "terms": 1458,
      "bound": 1459,
      "princi": 1460,
      "ero": 1461,
      "material": 1462,
      "medi": 1463,
      "fy": 1464,
      "ournal": 1465,
      "chemical": 1466,
      "esp": 1467,
      "Science": 1468,
      "dependent": 1469,
      "At": 1470,
      "name": 1471,
      "significant": 1472,
      "does": 1473,
      "bert": 1474,
      "fication": 1475,
      "technology": 1476,
      "immun": 1477,
      "John": 1478,
      "determin": 1479,
      "oss": 1480,
      "turn": 1481,
      "24": 1482,
      "country": 1483,
      "}{": 1484,
      "duction": 1485,
      "micro": 1486,
      "associated": 1487,
      "lection": 1488,
      "ecti": 1489,
      "role": 1490,
      "sug": 1491,
      "rate": 1492,
      "problem": 1493,
      "before": 1494,
      "published": 1495,
      "Cent": 1496,
      "ho": 1497,
      "mag": 1498,
      "Rus": 1499,
      "Quantum": 1500,
      "methods": 1501,
      "temper": 1502,
      "ither": 1503,
      "thesis": 1504,
      "det": 1505,
      "biology": 1506,
      "sets": 1507,
      "till": 1508,
      "gor": 1509,
      "Pe": 1510,
      "million": 1511,
      "without": 1512,
      "pha": 1513,
      "British": 1514,
      "proteins": 1515,
      "let": 1516,
      "economic": 1517,
      "har": 1518,
      "engine": 1519,
      "issu": 1520,
      "adi": 1521,
      "cir": 1522,
      "finite": 1523,
      "23": 1524,
      "ternal": 1525,
      "uter": 1526,
      "ict": 1527,
      "mission": 1528,
      "lack": 1529,
      "SP": 1530,
      "One": 1531,
      "expression": 1532,
      "educ": 1533,
      "bor": 1534,
      "arti": 1535,
      "ordin": 1536,
      "27": 1537,
      "add": 1538,
      "ulture": 1539,
      "atory": 1540,
      "stant": 1541,
      "ource": 1542,
      "anim": 1543,
      "Br": 1544,
      "rix": 1545,
      "regul": 1546,
      "considered": 1547,
      "40": 1548,
      "bit": 1549,
      "environmental": 1550,
      "numbers": 1551,
      "cos": 1552,
      "genes": 1553,
      "Phys": 1554,
      "bil": 1555,
      "minis": 1556,
      "operator": 1557,
      "changes": 1558,
      "predic": 1559,
      "another": 1560,
      "much": 1561,
      "child": 1562,
      "ier": 1563,
      "Press": 1564,
      "(\\": 1565,
      "elements": 1566,
      "Sch": 1567,
      "became": 1568,
      "effect": 1569,
      "buil": 1570,
      "ga": 1571,
      "pair": 1572,
      "free": 1573,
      "echnology": 1574,
      "results": 1575,
      "vention": 1576,
      "Per": 1577,
      "self": 1578,
      "ious": 1579,
      "rangle": 1580,
      "ume": 1581,
      "By": 1582,
      "South": 1583,
      "fig": 1584,
      "ids": 1585,
      "clim": 1586,
      "histor": 1587,
      "def": 1588,
      "28": 1589,
      "26": 1590,
      "foc": 1591,
      "vision": 1592,
      "ially": 1593,
      "particles": 1594,
      "alpha": 1595,
      "original": 1596,
      "nam": 1597,
      "195": 1598,
      "areas": 1599,
      "prot": 1600,
      "ouse": 1601,
      "hand": 1602,
      "Ro": 1603,
      "asing": 1604,
      "hom": 1605,
      "sem": 1606,
      "surface": 1607,
      "auto": 1608,
      "construc": 1609,
      "contr": 1610,
      "ason": 1611,
      "categ": 1612,
      "standard": 1613,
      "promo": 1614,
      "hol": 1615,
      "az": 1616,
      "matrix": 1617,
      "rest": 1618,
      "ars": 1619,
      "wave": 1620,
      "discover": 1621,
      "gorith": 1622,
      "mp": 1623,
      "algebra": 1624,
      "thern": 1625,
      "particle": 1626,
      "LI": 1627,
      "lam": 1628,
      "above": 1629,
      "conditions": 1630,
      "impro": 1631,
      "Dec": 1632,
      "sition": 1633,
      "growth": 1634,
      "21": 1635,
      "assi": 1636,
      "active": 1637,
      "city": 1638,
      "transp": 1639,
      "uk": 1640,
      "Mathema": 1641,
      "game": 1642,
      "factors": 1643,
      "usually": 1644,
      "Engl": 1645,
      "vil": 1646,
      "force": 1647,
      "rights": 1648,
      "concer": 1649,
      "Af": 1650,
      "inste": 1651,
      "total": 1652,
      "care": 1653,
      "success": 1654,
      "Earth": 1655,
      "anch": 1656,
      "series": 1657,
      "mathcal": 1658,
      "make": 1659,
      "29": 1660,
      "book": 1661,
      "bio": 1662,
      "effects": 1663,
      "served": 1664,
      "relati": 1665,
      "urity": 1666,
      "stit": 1667,
      "ling": 1668,
      "key": 1669,
      "ime": 1670,
      "special": 1671,
      "idence": 1672,
      "manag": 1673,
      "English": 1674,
      "dens": 1675,
      "ize": 1676,
      "ground": 1677,
      ".;": 1678,
      "ring": 1679,
      "stat": 1680,
      "via": 1681,
      "ales": 1682,
      "plied": 1683,
      "processes": 1684,
      "transcri": 1685,
      "RNA": 1686,
      "Out": 1687,
      "still": 1688,
      "pp": 1689,
      "}^{": 1690,
      "properties": 1691,
      "ained": 1692,
      "ables": 1693,
      "ploy": 1694,
      "culture": 1695,
      "mean": 1696,
      "either": 1697,
      "ision": 1698,
      "cing": 1699,
      "North": 1700,
      "ino": 1701,
      "photo": 1702,
      "become": 1703,
      "May": 1704,
      "ength": 1705,
      "^{\\": 1706,
      "genetic": 1707,
      "along": 1708,
      "recogn": 1709,
      "levels": 1710,
      "environment": 1711,
      "100": 1712,
      "ument": 1713,
      "post": 1714,
      "rece": 1715,
      "une": 1716,
      "techniqu": 1717,
      "German": 1718,
      "ison": 1719,
      "demo": 1720,
      "pass": 1721,
      "linear": 1722,
      "Wil": 1723,
      "inst": 1724,
      "strong": 1725,
      "contrib": 1726,
      "ada": 1727,
      "tle": 1728,
      "values": 1729,
      "activ": 1730,
      "help": 1731,
      "types": 1732,
      "global": 1733,
      "algorith": 1734,
      "Min": 1735,
      "tre": 1736,
      "members": 1737,
      "range": 1738,
      "plement": 1739,
      "family": 1740,
      "mechanics": 1741,
      "recept": 1742,
      "Ital": 1743,
      "ains": 1744,
      "partial": 1745,
      "near": 1746,
      "increase": 1747,
      "frequ": 1748,
      "nec": 1749,
      "sch": 1750,
      "ously": 1751,
      "constant": 1752,
      "should": 1753,
      "Dis": 1754,
      "ape": 1755,
      "disease": 1756,
      "ints": 1757,
      "ung": 1758,
      "omes": 1759,
      "distribution": 1760,
      "ley": 1761,
      "compon": 1762,
      "policy": 1763,
      "site": 1764,
      "atures": 1765,
      "emp": 1766,
      "usion": 1767,
      "biological": 1768,
      "La": 1769,
      "Sec": 1770,
      "described": 1771,
      "short": 1772,
      "mand": 1773,
      "means": 1774,
      "indic": 1775,
      "come": 1776,
      "lands": 1777,
      "liam": 1778,
      "begin": 1779,
      "Pre": 1780,
      "psych": 1781,
      "When": 1782,
      "separ": 1783,
      "BC": 1784,
      "until": 1785,
      "ked": 1786,
      "cep": 1787,
      "bon": 1788,
      "activity": 1789,
      "higher": 1790,
      "hal": 1791,
      "tis": 1792,
      "concept": 1793,
      "links": 1794,
      "Inter": 1795,
      "increased": 1796,
      "Other": 1797,
      "mathbb": 1798,
      "xed": 1799,
      "conver": 1800,
      "neg": 1801,
      "estern": 1802,
      "Arch": 1803,
      "da": 1804,
      "making": 1805,
      "mod": 1806,
      "further": 1807,
      "38": 1808,
      "Med": 1809,
      "ival": 1810,
      "vent": 1811,
      "electron": 1812,
      "did": 1813,
      "ture": 1814,
      "nucle": 1815,
      "ilos": 1816,
      "motion": 1817,
      "enz": 1818,
      "hydro": 1819,
      "vector": 1820,
      "imin": 1821,
      "cou": 1822,
      "electric": 1823,
      "Coun": 1824,
      "maint": 1825,
      "consist": 1826,
      "author": 1827,
      "behavior": 1828,
      "Im": 1829,
      "experi": 1830,
      "know": 1831,
      "equations": 1832,
      "factor": 1833,
      "classical": 1834,
      "written": 1835,
      "Chinese": 1836,
      "far": 1837,
      "ZE": 1838,
      "understand": 1839,
      "ised": 1840,
      "Ser": 1841,
      "tation": 1842,
      "hold": 1843,
      "chemistry": 1844,
      "avail": 1845,
      "enetic": 1846,
      "literature": 1847,
      "Fe": 1848,
      "ium": 1849,
      "fields": 1850,
      "international": 1851,
      "take": 1852,
      "Act": 1853,
      "shown": 1854,
      "King": 1855,
      "established": 1856,
      "SPEC": 1857,
      "Ber": 1858,
      "cop": 1859,
      "earch": 1860,
      "ledge": 1861,
      "IALI": 1862,
      "SPECIALI": 1863,
      "SPECIALIZE": 1864,
      "scale": 1865,
      "WIKI_SPECIALIZE": 1866,
      "WIKI_SPECIALIZED_": 1867,
      "mid": 1868,
      "To": 1869,
      "Li": 1870,
      "spin": 1871,
      "aining": 1872,
      "cod": 1873,
      "problems": 1874,
      "Mon": 1875,
      "Ap": 1876,
      "Sim": 1877,
      "apan": 1878,
      "vit": 1879,
      "across": 1880,
      "Eng": 1881,
      "head": 1882,
      "omial": 1883,
      "Man": 1884,
      "dynamics": 1885,
      "flow": 1886,
      ".}": 1887,
      "ef": 1888,
      "death": 1889,
      "Not": 1890,
      "phase": 1891,
      "addition": 1892,
      "event": 1893,
      "Geography": 1894,
      "cases": 1895,
      "oman": 1896,
      "Gu": 1897,
      "claim": 1898,
      "matter": 1899,
      "rand": 1900,
      "Japan": 1901,
      "dimensional": 1902,
      "iss": 1903,
      "2020": 1904,
      "produced": 1905,
      "oid": 1906,
      "created": 1907,
      "just": 1908,
      "brid": 1909,
      "nan": 1910,
      "ays": 1911,
      "methyl": 1912,
      "ograph": 1913,
      "wards": 1914,
      "stry": 1915,
      "code": 1916,
      "provide": 1917,
      "verse": 1918,
      "lik": 1919,
      "cycl": 1920,
      "response": 1921,
      "jo": 1922,
      "atter": 1923,
      "thus": 1924,
      "estim": 1925,
      "generally": 1926,
      "began": 1927,
      "yp": 1928,
      "ference": 1929,
      "pati": 1930,
      "ird": 1931,
      "uted": 1932,
      "bur": 1933,
      "doc": 1934,
      "ler": 1935,
      "phi": 1936,
      "sam": 1937,
      "80": 1938,
      "hum": 1939,
      "tail": 1940,
      "languages": 1941,
      "CD": 1942,
      "points": 1943,
      "artic": 1944,
      "geome": 1945,
      "rather": 1946,
      "60": 1947,
      "labor": 1948,
      "movement": 1949,
      "remain": 1950,
      "ques": 1951,
      "enn": 1952,
      "Aug": 1953,
      "sor": 1954,
      "ford": 1955,
      "}{\\": 1956,
      "temperature": 1957,
      "seen": 1958,
      "hor": 1959,
      "arily": 1960,
      "ses": 1961,
      "ker": 1962,
      "map": 1963,
      "quality": 1964,
      "approxim": 1965,
      "aster": 1966,
      "however": 1967,
      "Cont": 1968,
      "product": 1969,
      "organisms": 1970,
      "Oc": 1971,
      "atre": 1972,
      "Rec": 1973,
      "Research": 1974,
      "Jan": 1975,
      "Jul": 1976,
      "Human": 1977,
      "least": 1978,
      "multiple": 1979,
      "mom": 1980,
      "Ren": 1981,
      "strial": 1982,
      "drug": 1983,
      "limit": 1984,
      "relationship": 1985,
      "ered": 1986,
      "={\\": 1987,
      "onal": 1988,
      "Fran": 1989,
      "interest": 1990,
      "Austr": 1991,
      "PM": 1992,
      "him": 1993,
      "food": 1994,
      "Sovi": 1995,
      "39": 1996,
      "ogen": 1997,
      "raw": 1998,
      "analy": 1999,
      "scientific": 2000,
      "netic": 2001,
      "formed": 2002,
      "others": 2003,
      "According": 2004,
      "works": 2005,
      "network": 2006,
      "List": 2007,
      "element": 2008,
      "Dav": 2009,
      "Gre": 2010,
      "hat": 2011,
      "eth": 2012,
      "...": 2013,
      "ably": 2014,
      "arg": 2015,
      "scho": 2016,
      "learning": 2017,
      "formul": 2018,
      "concern": 2019,
      "sphere": 2020,
      "ming": 2021,
      "WIKI_ARTICLE_": 2022,
      "climate": 2023,
      "necess": 2024,
      "External": 2025,
      "positive": 2026,
      "cus": 2027,
      "require": 2028,
      "popular": 2029,
      "India": 2030,
      "civil": 2031,
      "ots": 2032,
      "York": 2033,
      "wide": 2034,
      "phosph": 2035,
      "35": 2036,
      "ecially": 2037,
      "Gl": 2038,
      "ellig": 2039,
      "ends": 2040,
      "amoun": 2041,
      "Outline": 2042,
      "omorph": 2043,
      "especially": 2044,
      "aces": 2045,
      "size": 2046,
      "abil": 2047,
      "suff": 2048,
      "Mal": 2049,
      "Journal": 2050,
      "few": 2051,
      "Austral": 2052,
      "list": 2053,
      "relig": 2054,
      "Common": 2055,
      "probability": 2056,
      "37": 2057,
      "ram": 2058,
      "evidence": 2059,
      "iness": 2060,
      "whe": 2061,
      "truc": 2062,
      "adap": 2063,
      "great": 2064,
      "acts": 2065,
      "tware": 2066,
      "reach": 2067,
      "ats": 2068,
      "modi": 2069,
      "io": 2070,
      "2008": 2071,
      "oftware": 2072,
      "employ": 2073,
      "computer": 2074,
      "Sc": 2075,
      "volution": 2076,
      "diag": 2077,
      "music": 2078,
      "pattern": 2079,
      "Since": 2080,
      "esti": 2081,
      "current": 2082,
      "achine": 2083,
      "equival": 2084,
      "Soci": 2085,
      "statis": 2086,
      "izations": 2087,
      "observ": 2088,
      "record": 2089,
      "grad": 2090,
      "ck": 2091,
      "accoun": 2092,
      "plas": 2093,
      "said": 2094,
      "obtain": 2095,
      "prec": 2096,
      "thing": 2097,
      "held": 2098,
      "deg": 2099,
      "ians": 2100,
      "tig": 2101,
      "Trans": 2102,
      "Bar": 2103,
      "2021": 2104,
      "August": 2105,
      "Am": 2106,
      "June": 2107,
      "conduc": 2108,
      "univer": 2109,
      "General": 2110,
      "sex": 2111,
      "cra": 2112,
      "aves": 2113,
      "nature": 2114,
      "ports": 2115,
      "Further": 2116,
      "2010": 2117,
      "basis": 2118,
      "ron": 2119,
      "zed": 2120,
      "mu": 2121,
      "events": 2122,
      "cultural": 2123,
      "Union": 2124,
      "ministr": 2125,
      "sequences": 2126,
      "break": 2127,
      "2012": 2128,
      "Soviet": 2129,
      "reed": 2130,
      "Fam": 2131,
      "bility": 2132,
      "With": 2133,
      "proposed": 2134,
      "available": 2135,
      "increasing": 2136,
      "Vol": 2137,
      "get": 2138,
      "hypo": 2139,
      "tically": 2140,
      "interpre": 2141,
      "engineering": 2142,
      "regard": 2143,
      "bol": 2144,
      "Health": 2145,
      "moment": 2146,
      "symmetry": 2147,
      "hip": 2148,
      "2009": 2149,
      "individuals": 2150,
      "Culture": 2151,
      "military": 2152,
      "While": 2153,
      ".:": 2154,
      "34": 2155,
      "central": 2156,
      "treatment": 2157,
      "2015": 2158,
      "ana": 2159,
      "previ": 2160,
      "transcription": 2161,
      "regions": 2162,
      "All": 2163,
      "source": 2164,
      "dri": 2165,
      "classi": 2166,
      "disorder": 2167,
      "band": 2168,
      "2011": 2169,
      "circ": 2170,
      "zero": 2171,
      "throp": 2172,
      "molecular": 2173,
      "Canada": 2174,
      "implement": 2175,
      "March": 2176,
      "branch": 2177,
      "includes": 2178,
      "Ste": 2179,
      "Instit": 2180,
      "ather": 2181,
      "phenomen": 2182,
      "women": 2183,
      "pain": 2184,
      "France": 2185,
      "After": 2186,
      "calcul": 2187,
      "complete": 2188,
      "Publ": 2189,
      "run": 2190,
      "ynomial": 2191,
      "Pa": 2192,
      "Mus": 2193,
      "asp": 2194,
      "bet": 2195,
      "respond": 2196,
      "poly": 2197,
      "cycle": 2198,
      "dev": 2199,
      "translation": 2200,
      "official": 2201,
      "Sept": 2202,
      "structures": 2203,
      "molecules": 2204,
      "included": 2205,
      "Su": 2206,
      "she": 2207,
      "lower": 2208,
      "Develop": 2209,
      "itself": 2210,
      "cup": 2211,
      "introduced": 2212,
      "Cal": 2213,
      "access": 2214,
      "died": 2215,
      "trieved": 2216,
      "neuro": 2217,
      "aries": 2218,
      "ologies": 2219,
      "2007": 2220,
      "market": 2221,
      "cities": 2222,
      "normal": 2223,
      "sometimes": 2224,
      "Spec": 2225,
      "cient": 2226,
      "America": 2227,
      "bacter": 2228,
      "toge": 2229,
      "blood": 2230,
      "Social": 2231,
      "membr": 2232,
      "net": 2233,
      "win": 2234,
      "itor": 2235,
      "produce": 2236,
      "community": 2237,
      "2013": 2238,
      "36": 2239,
      "September": 2240,
      "bly": 2241,
      "appear": 2242,
      "sident": 2243,
      "together": 2244,
      "Har": 2245,
      "risk": 2246,
      "2006": 2247,
      "Comp": 2248,
      "2014": 2249,
      "mathematical": 2250,
      "eas": 2251,
      "gam": 2252,
      "aper": 2253,
      "polynomial": 2254,
      "tual": 2255,
      "kin": 2256,
      "tice": 2257,
      "plant": 2258,
      "ged": 2259,
      "2018": 2260,
      "signal": 2261,
      "kes": 2262,
      "Republic": 2263,
      "stre": 2264,
      "cause": 2265,
      "omic": 2266,
      "demon": 2267,
      "formal": 2268,
      "mig": 2269,
      "applied": 2270,
      "Cam": 2271,
      "ified": 2272,
      "idea": 2273,
      "90": 2274,
      "rm": 2275,
      "Many": 2276,
      "2016": 2277,
      "domin": 2278,
      "required": 2279,
      "Family": 2280,
      "pose": 2281,
      "abol": 2282,
      "parame": 2283,
      "bodies": 2284,
      "2019": 2285,
      "interactions": 2286,
      "ederal": 2287,
      "aging": 2288,
      "ump": 2289,
      "Germany": 2290,
      "bus": 2291,
      "System": 2292,
      "tax": 2293,
      "chro": 2294,
      "cil": 2295,
      "No": 2296,
      "involved": 2297,
      "management": 2298,
      "offic": 2299,
      "ulations": 2300,
      "July": 2301,
      "2017": 2302,
      "70": 2303,
      "degree": 2304,
      "rop": 2305,
      "gas": 2306,
      "anced": 2307,
      "industry": 2308,
      "transfer": 2309,
      "instit": 2310,
      "children": 2311,
      "ient": 2312,
      "broad": 2313,
      "interaction": 2314,
      "equal": 2315,
      "ror": 2316,
      "dot": 2317,
      "solution": 2318,
      "anish": 2319,
      "trade": 2320,
      "late": 2321,
      "directly": 2322,
      "quanti": 2323,
      "atin": 2324,
      "Chris": 2325,
      "released": 2326,
      "phot": 2327,
      "Retrieved": 2328,
      "independent": 2329,
      "cies": 2330,
      "experiment": 2331,
      "que": 2332,
      "distinc": 2333,
      "allows": 2334,
      "ending": 2335,
      "table": 2336,
      "uments": 2337,
      "rain": 2338,
      "cracy": 2339,
      "enh": 2340,
      "education": 2341,
      "cannot": 2342,
      "January": 2343,
      "whose": 2344,
      "density": 2345,
      "tices": 2346,
      "section": 2347,
      "leading": 2348,
      "Africa": 2349,
      "transport": 2350,
      "Econ": 2351,
      "having": 2352,
      "vo": 2353,
      "strateg": 2354,
      "games": 2355,
      "odes": 2356,
      "typically": 2357,
      "elligence": 2358,
      "Octo": 2359,
      "exten": 2360,
      "suggest": 2361,
      "black": 2362,
      "mber": 2363,
      "}+": 2364,
      "frame": 2365,
      "October": 2366,
      "igen": 2367,
      "izing": 2368,
      "tian": 2369,
      "ball": 2370,
      "lor": 2371,
      "ont": 2372,
      "era": 2373,
      "prac": 2374,
      "fall": 2375,
      "unc": 2376,
      "concentr": 2377,
      "enced": 2378,
      "aged": 2379,
      "parts": 2380,
      "demonstr": 2381,
      "ral": 2382,
      "Physics": 2383,
      "estival": 2384,
      ",}": 2385,
      "oks": 2386,
      "dle": 2387,
      "placed": 2388,
      "Char": 2389,
      "2023": 2390,
      "ored": 2391,
      "collec": 2392,
      "conf": 2393,
      "colon": 2394,
      "definition": 2395,
      "Fil": 2396,
      "likely": 2397,
      "atives": 2398,
      "2005": 2399,
      "particularly": 2400,
      "Cor": 2401,
      "theories": 2402,
      "State": 2403,
      "communic": 2404,
      "Apr": 2405,
      "closed": 2406,
      "uture": 2407,
      "version": 2408,
      "Rel": 2409,
      "forces": 2410,
      "reaction": 2411,
      "2022": 2412,
      "philos": 2413,
      "viol": 2414,
      "Bib": 2415,
      "alle": 2416,
      "tri": 2417,
      "services": 2418,
      "thought": 2419,
      "pto": 2420,
      "objects": 2421,
      "bene": 2422,
      "last": 2423,
      "immune": 2424,
      "impact": 2425,
      "Nove": 2426,
      "Po": 2427,
      "particip": 2428,
      "During": 2429,
      "lit": 2430,
      "fully": 2431,
      "ief": 2432,
      "Ed": 2433,
      "Her": 2434,
      "Although": 2435,
      "April": 2436,
      "November": 2437,
      "uation": 2438,
      "Western": 2439,
      "lex": 2440,
      "cean": 2441,
      "compan": 2442,
      "coordin": 2443,
      "Ham": 2444,
      "align": 2445,
      "Fin": 2446,
      "angle": 2447,
      "brain": 2448,
      "techniques": 2449,
      "living": 2450,
      "building": 2451,
      "2000": 2452,
      "bal": 2453,
      "ina": 2454,
      "ewable": 2455,
      "binding": 2456,
      "SD": 2457,
      "team": 2458,
      "Environ": 2459,
      "ectively": 2460,
      "negative": 2461,
      "chann": 2462,
      "cancer": 2463,
      "aver": 2464,
      "cat": 2465,
      "proof": 2466,
      "dynamic": 2467,
      "restr": 2468,
      "critical": 2469,
      "largest": 2470,
      "arr": 2471,
      "ule": 2472,
      "lation": 2473,
      "squ": 2474,
      "software": 2475,
      "Technology": 2476,
      "good": 2477,
      "principle": 2478,
      "Sol": 2479,
      "although": 2480,
      "consum": 2481,
      "David": 2482,
      "mathematics": 2483,
      "create": 2484,
      "December": 2485,
      "reported": 2486,
      "48": 2487,
      "traditional": 2488,
      "Des": 2489,
      "altern": 2490,
      "practi": 2491,
      "observed": 2492,
      "Reg": 2493,
      "domain": 2494,
      "decre": 2495,
      "ieve": 2496,
      "random": 2497,
      "ades": 2498,
      "half": 2499,
      "Gree": 2500,
      "whether": 2501,
      "manif": 2502,
      "corpor": 2503,
      "More": 2504,
      "Bel": 2505,
      "home": 2506,
      "applications": 2507,
      "UK": 2508,
      "acid": 2509,
      "generation": 2510,
      "influence": 2511,
      "45": 2512,
      "arm": 2513,
      "below": 2514,
      "Mod": 2515,
      "resources": 2516,
      "ophy": 2517,
      "humans": 2518,
      "Revolution": 2519,
      "ark": 2520,
      "Roman": 2521,
      "icine": 2522,
      "CA": 2523,
      "full": 2524,
      "disci": 2525,
      "gan": 2526,
      "plication": 2527,
      "subst": 2528,
      "CR": 2529,
      "fundam": 2530,
      "wind": 2531,
      "universe": 2532,
      "tiz": 2533,
      "subject": 2534,
      "unit": 2535,
      "Paul": 2536,
      "diffic": 2537,
      "sent": 2538,
      "according": 2539,
      "cost": 2540,
      "products": 2541,
      "constit": 2542,
      "istance": 2543,
      "minim": 2544,
      "weak": 2545,
      "Del": 2546,
      "bes": 2547,
      "review": 2548,
      "psi": 2549,
      "membrane": 2550,
      "simple": 2551,
      "ix": 2552,
      "Ab": 2553,
      "portion": 2554,
      "fail": 2555,
      "argu": 2556,
      "itation": 2557,
      "East": 2558,
      "fit": 2559,
      "dou": 2560,
      "pen": 2561,
      "society": 2562,
      "priv": 2563,
      "speak": 2564,
      "films": 2565,
      "ama": 2566,
      "ata": 2567,
      "ilib": 2568,
      "-\\": 2569,
      "solar": 2570,
      "continuous": 2571,
      ")=": 2572,
      "Wik": 2573,
      "five": 2574,
      "scop": 2575,
      "coll": 2576,
      "category": 2577,
      "Lond": 2578,
      "ior": 2579,
      "discipl": 2580,
      "acks": 2581,
      "taken": 2582,
      "knowledge": 2583,
      "loss": 2584,
      "audi": 2585,
      "primary": 2586,
      "distance": 2587,
      "ery": 2588,
      "provided": 2589,
      "improve": 2590,
      "Theore": 2591,
      "City": 2592,
      "establish": 2593,
      "190": 2594,
      "medical": 2595,
      "spaces": 2596,
      "correc": 2597,
      "prog": 2598,
      "osystem": 2599,
      "ultural": 2600,
      "chall": 2601,
      "contains": 2602,
      "hab": 2603,
      "therefore": 2604,
      "compe": 2605,
      "target": 2606,
      "|\\": 2607,
      "London": 2608,
      "limited": 2609,
      "board": 2610,
      "itive": 2611,
      "tow": 2612,
      "vestig": 2613,
      "receptor": 2614,
      "Asia": 2615,
      "web": 2616,
      "47": 2617,
      "functional": 2618,
      "earli": 2619,
      "Sw": 2620,
      "El": 2621,
      "carbon": 2622,
      "ield": 2623,
      "And": 2624,
      "entire": 2625,
      "2004": 2626,
      "Institute": 2627,
      "ilibri": 2628,
      "ecosystem": 2629,
      "hard": 2630,
      "issues": 2631,
      "ths": 2632,
      "third": 2633,
      "orks": 2634,
      "ret": 2635,
      "ches": 2636,
      "relations": 2637,
      "thermo": 2638,
      "bridge": 2639,
      "Phil": 2640,
      "sites": 2641,
      "DA": 2642,
      "remo": 2643,
      "uel": 2644,
      "vation": 2645,
      "administr": 2646,
      "lines": 2647,
      "deriv": 2648,
      "big": 2649,
      "ka": 2650,
      "ique": 2651,
      "draw": 2652,
      "differenti": 2653,
      "Greek": 2654,
      "plies": 2655,
      "condition": 2656,
      "former": 2657,
      "bum": 2658,
      "}=": 2659,
      "detail": 2660,
      "Mich": 2661,
      "West": 2662,
      "eigen": 2663,
      "might": 2664,
      "diseases": 2665,
      "ush": 2666,
      "utes": 2667,
      "instead": 2668,
      "project": 2669,
      "plane": 2670,
      "transition": 2671,
      "pression": 2672,
      "rule": 2673,
      "amount": 2674,
      "Tra": 2675,
      "Tur": 2676,
      "meaning": 2677,
      "Let": 2678,
      "ination": 2679,
      "apy": 2680,
      "carri": 2681,
      "Vi": 2682,
      "kill": 2683,
      "scri": 2684,
      "stress": 2685,
      "ole": 2686,
      "oche": 2687,
      "31": 2688,
      "satis": 2689,
      "upon": 2690,
      "berg": 2691,
      "inal": 2692,
      "prevent": 2693,
      "First": 2694,
      "partment": 2695,
      "ectors": 2696,
      "Demo": 2697,
      "Febr": 2698,
      "nuclear": 2699,
      "six": 2700,
      "February": 2701,
      "tex": 2702,
      "materials": 2703,
      "Kingdom": 2704,
      "ST": 2705,
      "ense": 2706,
      "Thus": 2707,
      "inhib": 2708,
      "compar": 2709,
      "Black": 2710,
      "discus": 2711,
      "larger": 2712,
      "Society": 2713,
      "reading": 2714,
      "Govern": 2715,
      "var": 2716,
      "encies": 2717,
      "numer": 2718,
      "46": 2719,
      "Che": 2720,
      "host": 2721,
      "dig": 2722,
      "aceae": 2723,
      "mann": 2724,
      "2003": 2725,
      "cyto": 2726,
      "2024": 2727,
      "sense": 2728,
      "rich": 2729,
      "reli": 2730,
      "ible": 2731,
      "geometry": 2732,
      "words": 2733,
      "Arab": 2734,
      "WIKI_SPECIALIZED_00": 2735,
      "Iran": 2736,
      "Scot": 2737,
      "Theory": 2738,
      "variables": 2739,
      "needed": 2740,
      "tissu": 2741,
      "variety": 2742,
      "provides": 2743,
      "fundamental": 2744,
      "ites": 2745,
      "restric": 2746,
      "Off": 2747,
      "assum": 2748,
      "ham": 2749,
      "vities": 2750,
      "dots": 2751,
      "ires": 2752,
      "effor": 2753,
      "roup": 2754,
      "throughout": 2755,
      "plants": 2756,
      "ilibrium": 2757,
      "nutr": 2758,
      "billion": 2759,
      "Mac": 2760,
      "hood": 2761,
      "African": 2762,
      "istan": 2763,
      "differential": 2764,
      "sources": 2765,
      "understanding": 2766,
      "components": 2767,
      "rates": 2768,
      "heav": 2769,
      "Cons": 2770,
      "wood": 2771,
      "alter": 2772,
      "chain": 2773,
      "future": 2774,
      "Another": 2775,
      "caused": 2776,
      "ink": 2777,
      "security": 2778,
      "operation": 2779,
      "ster": 2780,
      "Contin": 2781,
      "economy": 2782,
      "33": 2783,
      "rise": 2784,
      "Biology": 2785,
      "animals": 2786,
      "examples": 2787,
      "charge": 2788,
      "Commons": 2789,
      "occurs": 2790,
      "From": 2791,
      "cas": 2792,
      "comes": 2793,
      "Fer": 2794,
      "greater": 2795,
      "construction": 2796,
      "best": 2797,
      "genome": 2798,
      "fixed": 2799,
      "William": 2800,
      "mas": 2801,
      "encing": 2802,
      "Indian": 2803,
      "property": 2804,
      "context": 2805,
      "capital": 2806,
      "ceed": 2807,
      "Bio": 2808,
      "vin": 2809,
      "unch": 2810,
      "announ": 2811,
      "kind": 2812,
      "length": 2813,
      "Elec": 2814,
      "SN": 2815,
      "aiss": 2816,
      "neutr": 2817,
      "students": 2818,
      "sust": 2819,
      "auge": 2820,
      "prison": 2821,
      "reedom": 2822,
      "ampion": 2823,
      "address": 2824,
      "x_": 2825,
      "shif": 2826,
      "ctic": 2827,
      "selec": 2828,
      "Organ": 2829,
      "born": 2830,
      "},": 2831,
      "Tw": 2832,
      "itect": 2833,
      "compared": 2834,
      "Development": 2835,
      "capac": 2836,
      "volume": 2837,
      "laws": 2838,
      "application": 2839,
      "aissance": 2840,
      "features": 2841,
      "Cy": 2842,
      "heat": 2843,
      "referred": 2844,
      "55": 2845,
      "repe": 2846,
      "possi": 2847,
      "representation": 2848,
      "Public": 2849,
      "Hist": 2850,
      "prior": 2851,
      "arrow": 2852,
      "ills": 2853,
      "expand": 2854,
      "topological": 2855,
      "equivalent": 2856,
      "arian": 2857,
      "practice": 2858,
      "object": 2859,
      "developing": 2860,
      "coupl": 2861,
      "oot": 2862,
      "Most": 2863,
      "investig": 2864,
      "acting": 2865,
      "responding": 2866,
      "Go": 2867,
      "always": 2868,
      "accur": 2869,
      "working": 2870,
      "necessary": 2871,
      "PD": 2872,
      "elves": 2873,
      "gravity": 2874,
      "patients": 2875,
      "optim": 2876,
      "Russian": 2877,
      "bos": 2878,
      "inger": 2879,
      "Poli": 2880,
      "AD": 2881,
      "clin": 2882,
      "neur": 2883,
      "expressed": 2884,
      "profes": 2885,
      "methylation": 2886,
      "Str": 2887,
      "ologists": 2888,
      "critic": 2889,
      "2001": 2890,
      "ocy": 2891,
      "transform": 2892,
      ".)": 2893,
      "organization": 2894,
      "ready": 2895,
      "chromo": 2896,
      "lat": 2897,
      "legal": 2898,
      "word": 2899,
      "commonly": 2900,
      "coeffici": 2901,
      "embr": 2902,
      "Thom": 2903,
      "astic": 2904,
      "media": 2905,
      "wise": 2906,
      "historical": 2907,
      "foreign": 2908,
      "tree": 2909,
      "adop": 2910,
      "resulting": 2911,
      "member": 2912,
      "lay": 2913,
      "stage": 2914,
      "Mathematics": 2915,
      "momentum": 2916,
      "88": 2917,
      "oti": 2918,
      "decision": 2919,
      "highly": 2920,
      "ank": 2921,
      "iting": 2922,
      "denot": 2923,
      "towards": 2924,
      "electro": 2925,
      "identify": 2926,
      "ined": 2927,
      "almost": 2928,
      "ister": 2929,
      "specif": 2930,
      "networks": 2931,
      "Lab": 2932,
      "occup": 2933,
      "electrons": 2934,
      "synthesis": 2935,
      "pan": 2936,
      "migr": 2937,
      "emis": 2938,
      "ael": 2939,
      "sil": 2940,
      "better": 2941,
      "performance": 2942,
      "maxim": 2943,
      "derived": 2944,
      "researchers": 2945,
      "ections": 2946,
      "exact": 2947,
      "mathrm": 2948,
      "existence": 2949,
      "itch": 2950,
      "operatorname": 2951,
      "atur": 2952,
      "selection": 2953,
      "effective": 2954,
      "99": 2955,
      "reason": 2956,
      "istics": 2957,
      "identified": 2958,
      "base": 2959,
      "album": 2960,
      "basic": 2961,
      "shows": 2962,
      "business": 2963,
      "assess": 2964,
      "ico": 2965,
      "isation": 2966,
      "attle": 2967,
      "Em": 2968,
      "reduc": 2969,
      "stated": 2970,
      "versity": 2971,
      "32": 2972,
      "wa": 2973,
      "true": 2974,
      "citiz": 2975,
      "mechanism": 2976,
      "imedia": 2977,
      "algorithm": 2978,
      "Wikimedia": 2979,
      "bir": 2980,
      "tele": 2981,
      "companies": 2982,
      "anthrop": 2983,
      "pers": 2984,
      "initial": 2985,
      "symbol": 2986,
      "Cong": 2987,
      "Stu": 2988,
      "populations": 2989,
      "border": 2990,
      "fish": 2991,
      "nic": 2992,
      "instr": 2993,
      "beta": 2994,
      "topology": 2995,
      "bda": 2996,
      "town": 2997,
      "exc": 2998,
      "stream": 2999,
      "rob": 3000,
      "road": 3001,
      "Mil": 3002,
      "isol": 3003,
      "additional": 3004,
      "stim": 3005,
      "infty": 3006,
      "enter": 3007,
      "named": 3008,
      "diversity": 3009,
      "Pri": 3010,
      "ani": 3011,
      "ards": 3012,
      "correspond": 3013,
      "average": 3014,
      "give": 3015,
      "onto": 3016,
      "follows": 3017,
      "equilibrium": 3018,
      "reduce": 3019,
      "tools": 3020,
      "sq": 3021,
      "programs": 3022,
      "oul": 3023,
      "crimin": 3024,
      "Emp": 3025,
      "Mc": 3026,
      "ides": 3027,
      "75": 3028,
      "cratic": 3029,
      "cast": 3030,
      "Hol": 3031,
      "activities": 3032,
      "Brit": 3033,
      "oto": 3034,
      "company": 3035,
      "solutions": 3036,
      "na": 3037,
      "Bec": 3038,
      "graphs": 3039,
      "Council": 3040,
      "crete": 3041,
      "regular": 3042,
      "Australia": 3043,
      "Law": 3044,
      "outside": 3045,
      "Val": 3046,
      "clear": 3047,
      "counter": 3048,
      "plications": 3049,
      "gence": 3050,
      "affect": 3051,
      "Commun": 3052,
      "mitte": 3053,
      "zation": 3054,
      "ancient": 3055,
      "2002": 3056,
      "Renaissance": 3057,
      "rt": 3058,
      "ands": 3059,
      "ili": 3060,
      "Super": 3061,
      "compos": 3062,
      "color": 3063,
      "experiments": 3064,
      "ufact": 3065,
      "recent": 3066,
      "ulated": 3067,
      "widel": 3068,
      "feature": 3069,
      "widely": 3070,
      "industrial": 3071,
      "ores": 3072,
      "thems": 3073,
      "extr": 3074,
      "cross": 3075,
      "las": 3076,
      "took": 3077,
      "gives": 3078,
      "morph": 3079,
      "generated": 3080,
      "school": 3081,
      "Fore": 3082,
      "ded": 3083,
      "gamma": 3084,
      "Rich": 3085,
      "aus": 3086,
      "inde": 3087,
      "pressure": 3088,
      "yst": 3089,
      "gravit": 3090,
      "Italian": 3091,
      "themselves": 3092,
      "offer": 3093,
      "urban": 3094,
      "intelligence": 3095,
      "Associ": 3096,
      "rown": 3097,
      "hypothesis": 3098,
      "outhern": 3099,
      "corresponding": 3100,
      "rup": 3101,
      "final": 3102,
      "cin": 3103,
      "etary": 3104,
      "collection": 3105,
      "paper": 3106,
      "otechnology": 3107,
      "phy": 3108,
      "nos": 3109,
      "langle": 3110,
      "formula": 3111,
      "find": 3112,
      "Kore": 3113,
      "WIKI_ARTICLE_00": 3114,
      "James": 3115,
      "survi": 3116,
      "eval": 3117,
      "River": 3118,
      "past": 3119,
      "tili": 3120,
      "renewable": 3121,
      "entially": 3122,
      "performed": 3123,
      "instein": 3124,
      "measures": 3125,
      "signed": 3126,
      "allowed": 3127,
      "Ter": 3128,
      "sus": 3129,
      "rough": 3130,
      "variant": 3131,
      "rapid": 3132,
      "Russia": 3133,
      "44": 3134,
      "ght": 3135,
      "experience": 3136,
      "exists": 3137,
      "block": 3138,
      "unique": 3139,
      "omega": 3140,
      "expected": 3141,
      "discovered": 3142,
      "ainable": 3143,
      "Exam": 3144,
      "Eg": 3145,
      "Sup": 3146,
      "ped": 3147,
      "Great": 3148,
      "Mid": 3149,
      "commer": 3150,
      "reality": 3151,
      "vey": 3152,
      "ises": 3153,
      "meet": 3154,
      "Archived": 3155,
      "tivity": 3156,
      "lecular": 3157,
      "direction": 3158,
      "return": 3159,
      "PMID": 3160,
      "came": 3161,
      "sw": 3162,
      "ilton": 3163,
      "training": 3164,
      "facil": 3165,
      "schol": 3166,
      "ops": 3167,
      "PA": 3168,
      "nel": 3169,
      "say": 3170,
      "Mark": 3171,
      "mutation": 3172,
      "frequency": 3173,
      "Economic": 3174,
      "ensive": 3175,
      "65": 3176,
      "\\\\": 3177,
      "Robert": 3178,
      "roy": 3179,
      "elling": 3180,
      "connected": 3181,
      "Einstein": 3182,
      "fav": 3183,
      "tas": 3184,
      "ilon": 3185,
      "agre": 3186,
      "Sub": 3187,
      "invest": 3188,
      "infl": 3189,
      "too": 3190,
      "located": 3191,
      "SC": 3192,
      "reduced": 3193,
      "Anti": 3194,
      "metabol": 3195,
      "capacity": 3196,
      "territ": 3197,
      "tention": 3198,
      "95": 3199,
      "pon": 3200,
      "designed": 3201,
      "reflec": 3202,
      "close": 3203,
      "instance": 3204,
      "jective": 3205,
      "nation": 3206,
      "dependence": 3207,
      "step": 3208,
      "ements": 3209,
      "ney": 3210,
      "psilon": 3211,
      "religious": 3212,
      "camp": 3213,
      "done": 3214,
      "Cur": 3215,
      "plit": 3216,
      "conserv": 3217,
      "excl": 3218,
      "mechanisms": 3219,
      "His": 3220,
      "concl": 3221,
      "ders": 3222,
      "article": 3223,
      "ey": 3224,
      "compact": 3225,
      "extre": 3226,
      "showed": 3227,
      "combination": 3228,
      "ountain": 3229,
      "relative": 3230,
      "threat": 3231,
      "Hamilton": 3232,
      "refers": 3233,
      "manifold": 3234,
      "fem": 3235,
      "involves": 3236,
      "atoms": 3237,
      "distinct": 3238,
      "suffici": 3239,
      "agric": 3240,
      "ership": 3241,
      "presence": 3242,
      "units": 3243,
      "Spanish": 3244,
      "Empire": 3245,
      "makes": 3246,
      "gauge": 3247,
      "emph": 3248,
      "metric": 3249,
      "visual": 3250,
      "continued": 3251,
      "requires": 3252,
      "focus": 3253,
      "theoretical": 3254,
      "Mor": 3255,
      "spir": 3256,
      "followed": 3257,
      "waves": 3258,
      "magnetic": 3259,
      "mes": 3260,
      "ky": 3261,
      "bey": 3262,
      "Cambridge": 3263,
      "oration": 3264,
      "Histor": 3265,
      "determined": 3266,
      "machine": 3267,
      "writing": 3268,
      "speed": 3269,
      "received": 3270,
      "ij": 3271,
      "deb": 3272,
      "1999": 3273,
      "datab": 3274,
      "private": 3275,
      "Ben": 3276,
      "Gra": 3277,
      "SA": 3278,
      "built": 3279,
      "Mathematical": 3280,
      "etc": 3281,
      "sigma": 3282,
      "organizations": 3283,
      "describe": 3284,
      "Air": 3285,
      "ademic": 3286,
      "competi": 3287,
      "theatre": 3288,
      "image": 3289,
      "emerg": 3290,
      "ull": 3291,
      "ours": 3292,
      "announced": 3293,
      "resol": 3294,
      "oung": 3295,
      "subsequ": 3296,
      "Malay": 3297,
      "graphy": 3298,
      "already": 3299,
      "variable": 3300,
      "expan": 3301,
      "98": 3302,
      "song": 3303,
      "Environmental": 3304,
      "sqrt": 3305,
      "faces": 3306,
      "Tim": 3307,
      "next": 3308,
      "ampionship": 3309,
      "rad": 3310,
      "stable": 3311,
      "van": 3312,
      "hyper": 3313,
      "novel": 3314,
      "round": 3315,
      "difference": 3316,
      "ification": 3317,
      "romag": 3318,
      "patterns": 3319,
      "therapy": 3320,
      "internal": 3321,
      "agg": 3322,
      "look": 3323,
      "causes": 3324,
      "beginning": 3325,
      "UN": 3326,
      "aj": 3327,
      "poll": 3328,
      "epig": 3329,
      ");": 3330,
      "vic": 3331,
      "technologies": 3332,
      "whole": 3333,
      "Islam": 3334,
      "artificial": 3335,
      "Bur": 3336,
      "bing": 3337,
      "studied": 3338,
      "President": 3339,
      "Hy": 3340,
      "quar": 3341,
      "subset": 3342,
      "smaller": 3343,
      "Class": 3344,
      "democracy": 3345,
      "plann": 3346,
      "useful": 3347,
      "solid": 3348,
      "memory": 3349,
      "radiation": 3350,
      "Central": 3351,
      "zer": 3352,
      "ounds": 3353,
      "66": 3354,
      "rema": 3355,
      "release": 3356,
      "atmo": 3357,
      "folk": 3358,
      "exec": 3359,
      "tingu": 3360,
      "algorithms": 3361,
      "Mic": 3362,
      "poses": 3363,
      "core": 3364,
      "gal": 3365,
      "aint": 3366,
      "mittee": 3367,
      "Green": 3368,
      "19th": 3369,
      "regulation": 3370,
      "scientists": 3371,
      "abilities": 3372,
      "Special": 3373,
      "spher": 3374,
      "account": 3375,
      "remains": 3376,
      "Rights": 3377,
      "vot": 3378,
      "architect": 3379,
      "exhib": 3380,
      "creation": 3381,
      "video": 3382,
      "Dr": 3383,
      "itions": 3384,
      "journal": 3385,
      "tu": 3386,
      "aly": 3387,
      "manufact": 3388,
      "challeng": 3389,
      "Fol": 3390,
      "rary": 3391,
      "eler": 3392,
      "oms": 3393,
      "univers": 3394,
      "question": 3395,
      "phyl": 3396,
      "finan": 3397,
      "saw": 3398,
      "distingu": 3399,
      "Italy": 3400,
      "attach": 3401,
      "sector": 3402,
      "varphi": 3403,
      "High": 3404,
      "urch": 3405,
      "archae": 3406,
      "Department": 3407,
      "scul": 3408,
      "date": 3409,
      "pal": 3410,
      "finding": 3411,
      "emphas": 3412,
      "({\\": 3413,
      "tend": 3414,
      "Bibcode": 3415,
      "scre": 3416,
      "orge": 3417,
      "termine": 3418,
      "umb": 3419,
      "Stand": 3420,
      "becomes": 3421,
      "rati": 3422,
      "tau": 3423,
      "empt": 3424,
      "content": 3425,
      "oil": 3426,
      "determine": 3427,
      "neigh": 3428,
      "Ox": 3429,
      "obtained": 3430,
      "osition": 3431,
      "reactions": 3432,
      "string": 3433,
      "portal": 3434,
      "forest": 3435,
      "incorpor": 3436,
      "deal": 3437,
      "Port": 3438,
      "Spr": 3439,
      "England": 3440,
      "previous": 3441,
      "But": 3442,
      "Ri": 3443,
      "live": 3444,
      "Over": 3445,
      "stor": 3446,
      "leads": 3447,
      "animal": 3448,
      "contrast": 3449,
      "lambda": 3450,
      "plicit": 3451,
      "trict": 3452,
      "Lang": 3453,
      "tour": 3454,
      "ulate": 3455,
      "identity": 3456,
      "measurement": 3457,
      "dimension": 3458,
      "travel": 3459,
      "party": 3460,
      "component": 3461,
      "Molecular": 3462,
      "85": 3463,
      "Bl": 3464,
      "Bas": 3465,
      "dial": 3466,
      "ago": 3467,
      "responsible": 3468,
      "Sur": 3469,
      "eties": 3470,
      "election": 3471,
      "ito": 3472,
      "reference": 3473,
      "percent": 3474,
      "iden": 3475,
      "primarily": 3476,
      "Ver": 3477,
      "ened": 3478,
      "spread": 3479,
      "longer": 3480,
      "approaches": 3481,
      "Continental": 3482,
      ".).": 3483,
      "Bal": 3484,
      "qual": 3485,
      "preser": 3486,
      "My": 3487,
      "federal": 3488,
      "experimental": 3489,
      "bacteria": 3490,
      "67": 3491,
      "algebraic": 3492,
      "ece": 3493,
      "launch": 3494,
      "operations": 3495,
      "integral": 3496,
      "sin": 3497,
      "repres": 3498,
      "ception": 3499,
      "idae": 3500,
      "teen": 3501,
      "synthe": 3502,
      "taking": 3503,
      "course": 3504,
      "Britain": 3505,
      "Cell": 3506,
      "damage": 3507,
      "cellular": 3508,
      "represented": 3509,
      "embry": 3510,
      "S2": 3511,
      "Vir": 3512,
      "assem": 3513,
      "avoid": 3514,
      "vacc": 3515,
      "online": 3516,
      "choice": 3517,
      "infinite": 3518,
      "apply": 3519,
      "operators": 3520,
      "analog": 3521,
      "advant": 3522,
      "directed": 3523,
      "cosm": 3524,
      "difficult": 3525,
      "ditionally": 3526,
      "policies": 3527,
      "spok": 3528,
      "tructure": 3529,
      "ising": 3530,
      "demand": 3531,
      "increases": 3532,
      "simpl": 3533,
      "cdot": 3534,
      "1998": 3535,
      "prime": 3536,
      "evolutionary": 3537,
      "Modern": 3538,
      "Government": 3539,
      "sa": 3540,
      "eta": 3541,
      "Cour": 3542,
      "ean": 3543,
      "uts": 3544,
      "Film": 3545,
      "rules": 3546,
      "painting": 3547,
      "sea": 3548,
      "moti": 3549,
      "Energy": 3550,
      "card": 3551,
      "sens": 3552,
      ")^{": 3553,
      "Christian": 3554,
      "theta": 3555,
      "tom": 3556,
      "setting": 3557,
      "Rob": 3558,
      "sl": 3559,
      "forma": 3560,
      "respect": 3561,
      "sculpt": 3562,
      "Engine": 3563,
      "aign": 3564,
      "lying": 3565,
      "Sing": 3566,
      "porary": 3567,
      "antigen": 3568,
      "respectively": 3569,
      "dimensions": 3570,
      "ony": 3571,
      "Under": 3572,
      "Canadi": 3573,
      "expansion": 3574,
      "uration": 3575,
      "confl": 3576,
      "Japanese": 3577,
      "mix": 3578,
      "nit": 3579,
      "pay": 3580,
      "quad": 3581,
      "elect": 3582,
      "mone": 3583,
      "93": 3584,
      "Dir": 3585,
      "mitted": 3586,
      "Model": 3587,
      "liber": 3588,
      "yet": 3589,
      "estic": 3590,
      "mechanical": 3591,
      "rew": 3592,
      "apping": 3593,
      "targets": 3594,
      "xi": 3595,
      "amino": 3596,
      "link": 3597,
      "square": 3598,
      "digital": 3599,
      "ert": 3600,
      "atomic": 3601,
      "computational": 3602,
      "cepts": 3603,
      "Congress": 3604,
      "freedom": 3605,
      "mel": 3606,
      "Paris": 3607,
      "aligned": 3608,
      "aut": 3609,
      "house": 3610,
      "acqu": 3611,
      "away": 3612,
      "double": 3613,
      "achieve": 3614,
      "Plan": 3615,
      "disorders": 3616,
      "don": 3617,
      "orbit": 3618,
      "itable": 3619,
      "izes": 3620,
      "status": 3621,
      "proportion": 3622,
      "aspects": 3623,
      "lic": 3624,
      "gency": 3625,
      "administration": 3626,
      "tors": 3627,
      "ria": 3628,
      "service": 3629,
      "George": 3630,
      "ographic": 3631,
      "Association": 3632,
      "Because": 3633,
      "liament": 3634,
      "ema": 3635,
      "20th": 3636,
      "logic": 3637,
      "ening": 3638,
      "}^{\\": 3639,
      "2n": 3640,
      "Oly": 3641,
      "Arctic": 3642,
      "electricity": 3643,
      "measured": 3644,
      "days": 3645,
      "Sam": 3646,
      "bond": 3647,
      "atch": 3648,
      "communities": 3649,
      "takes": 3650,
      "Bay": 3651,
      "won": 3652,
      "minor": 3653,
      "statistical": 3654,
      "Philip": 3655,
      "inary": 3656,
      "legis": 3657,
      "}-": 3658,
      "virtual": 3659,
      "document": 3660,
      "tel": 3661,
      "zing": 3662,
      "ishing": 3663,
      "ux": 3664,
      "organism": 3665,
      "majority": 3666,
      "Latin": 3667,
      "played": 3668,
      "figure": 3669,
      "added": 3670,
      "print": 3671,
      "Commission": 3672,
      "institutions": 3673,
      "esis": 3674,
      "1997": 3675,
      "dest": 3676,
      "enough": 3677,
      "linked": 3678,
      "relatively": 3679,
      "PR": 3680,
      "aps": 3681,
      "Review": 3682,
      "prop": 3683,
      "projects": 3684,
      "exchange": 3685,
      "successful": 3686,
      "differences": 3687,
      "AM": 3688,
      "intr": 3689,
      "aled": 3690,
      "Second": 3691,
      "consists": 3692,
      "box": 3693,
      "attemp": 3694,
      "ague": 3695,
      "osc": 3696,
      "involve": 3697,
      "needs": 3698,
      "iat": 3699,
      "polar": 3700,
      "weight": 3701,
      "once": 3702,
      "root": 3703,
      "correct": 3704,
      "approximately": 3705,
      "77": 3706,
      "96": 3707,
      "Theatre": 3708,
      "white": 3709,
      "essential": 3710,
      "sugges": 3711,
      "never": 3712,
      "ISSN": 3713,
      "Kar": 3714,
      "ek": 3715,
      "ned": 3716,
      "ica": 3717,
      "convention": 3718,
      "Gal": 3719,
      "phenomena": 3720,
      "Therefore": 3721,
      "receptors": 3722,
      "spoken": 3723,
      "SDG": 3724,
      "Sun": 3725,
      "a_": 3726,
      "spectr": 3727,
      "Thomas": 3728,
      "attempt": 3729,
      "Lou": 3730,
      "alternative": 3731,
      "reve": 3732,
      "ski": 3733,
      "estimated": 3734,
      "clinical": 3735,
      "ression": 3736,
      "location": 3737,
      "photon": 3738,
      "activation": 3739,
      "Evolution": 3740,
      "dia": 3741,
      "turb": 3742,
      "Bra": 3743,
      "Ob": 3744,
      "comm": 3745,
      "center": 3746,
      "ake": 3747,
      "simply": 3748,
      "Sm": 3749,
      "lip": 3750,
      "sensi": 3751,
      "phosphory": 3752,
      "Such": 3753,
      "vary": 3754,
      "Then": 3755,
      "ano": 3756,
      "Center": 3757,
      "coding": 3758,
      "organic": 3759,
      "founded": 3760,
      "concentration": 3761,
      ".[": 3762,
      "uni": 3763,
      "CID": 3764,
      "dol": 3765,
      "tox": 3766,
      "Olymp": 3767,
      "sal": 3768,
      "oxy": 3769,
      "ocean": 3770,
      "serve": 3771,
      "diction": 3772,
      "enzy": 3773,
      "commercial": 3774,
      "vare": 3775,
      "division": 3776,
      "tests": 3777,
      "little": 3778,
      "})}": 3779,
      "antic": 3780,
      "plays": 3781,
      "share": 3782,
      "ideas": 3783,
      "hu": 3784,
      "ki": 3785,
      "matic": 3786,
      "Diff": 3787,
      "define": 3788,
      "happ": 3789,
      "rier": 3790,
      "Er": 3791,
      "bind": 3792,
      "ilar": 3793,
      "constr": 3794,
      "resistance": 3795,
      "medicine": 3796,
      "personal": 3797,
      "Richard": 3798,
      "absor": 3799,
      "cryst": 3800,
      "Park": 3801,
      "Its": 3802,
      "Pal": 3803,
      "och": 3804,
      "delta": 3805,
      "ray": 3806,
      "},\\": 3807,
      "existing": 3808,
      "started": 3809,
      "Alex": 3810,
      "Nations": 3811,
      "transformation": 3812,
      "parameters": 3813,
      "Michael": 3814,
      "jud": 3815,
      "+\\": 3816,
      "Mex": 3817,
      "cut": 3818,
      "nia": 3819,
      "goal": 3820,
      "cel": 3821,
      "infr": 3822,
      "ught": 3823,
      "script": 3824,
      "She": 3825,
      "omics": 3826,
      "symmetric": 3827,
      "epigenetic": 3828,
      "onomy": 3829,
      "PT": 3830,
      "rote": 3831,
      "acted": 3832,
      "arith": 3833,
      "workers": 3834,
      "books": 3835,
      "cogn": 3836,
      "Group": 3837,
      "za": 3838,
      "Direc": 3839,
      "gravitational": 3840,
      "S2CID": 3841,
      "vant": 3842,
      "valid": 3843,
      "ington": 3844,
      "Middle": 3845,
      "42": 3846,
      "astr": 3847,
      "Pop": 3848,
      "Top": 3849,
      "specifically": 3850,
      "changed": 3851,
      "amin": 3852,
      "ocal": 3853,
      "Charles": 3854,
      "attack": 3855,
      "mac": 3856,
      "eds": 3857,
      "larg": 3858,
      "ident": 3859,
      "Ind": 3860,
      "computing": 3861,
      "Canadian": 3862,
      "varepsilon": 3863,
      "trial": 3864,
      "spati": 3865,
      "Comput": 3866,
      "growing": 3867,
      "testing": 3868,
      "eck": 3869,
      "Two": 3870,
      "oth": 3871,
      "classes": 3872,
      "allowing": 3873,
      "issue": 3874,
      "emer": 3875,
      "oppos": 3876,
      "Peter": 3877,
      "sample": 3878,
      "emann": 3879,
      "jection": 3880,
      "kine": 3881,
      "Similar": 3882,
      "wrote": 3883,
      "generate": 3884,
      "defic": 3885,
      "Aust": 3886,
      "liqu": 3887,
      "sche": 3888,
      "ought": 3889,
      "radio": 3890,
      "edge": 3891,
      "eline": 3892,
      "earlier": 3893,
      "Non": 3894,
      "dance": 3895,
      "financial": 3896,
      "suggested": 3897,
      "Each": 3898,
      "conject": 3899,
      "mediate": 3900,
      "unction": 3901,
      "Lif": 3902,
      "hic": 3903,
      "player": 3904,
      "composition": 3905,
      "1994": 3906,
      "mito": 3907,
      "relativity": 3908,
      "68": 3909,
      "ying": 3910,
      "Hen": 3911,
      "House": 3912,
      "mutations": 3913,
      "IT": 3914,
      "wr": 3915,
      "}}(": 3916,
      "extended": 3917,
      "mainly": 3918,
      "49": 3919,
      "pul": 3920,
      "hydrogen": 3921,
      "oral": 3922,
      "orient": 3923,
      "seem": 3924,
      "proto": 3925,
      "Hamiltonian": 3926,
      "Civ": 3927,
      "orb": 3928,
      "ogene": 3929,
      "Art": 3930,
      "technique": 3931,
      "Mart": 3932,
      "edition": 3933,
      "believed": 3934,
      "gent": 3935,
      "famil": 3936,
      "expon": 3937,
      "separate": 3938,
      "IV": 3939,
      "rational": 3940,
      "ype": 3941,
      "reas": 3942,
      "perf": 3943,
      "05": 3944,
      "acu": 3945,
      "ologist": 3946,
      "2025": 3947,
      "eness": 3948,
      "variation": 3949,
      "Global": 3950,
      "previously": 3951,
      "creating": 3952,
      "gel": 3953,
      "arrang": 3954,
      "1970s": 3955,
      "communication": 3956,
      "Festival": 3957,
      "note": 3958,
      "tissue": 3959,
      "Oxford": 3960,
      "Machine": 3961,
      "Army": 3962,
      "pathway": 3963,
      "WIKI_SPECIALIZED_000": 3964,
      "WIKI_ARTICLE_000": 3965,
      "thermodynamic": 3966,
      "Examples": 3967,
      "Ep": 3968,
      "affected": 3969,
      "significantly": 3970,
      "tool": 3971,
      "afety": 3972,
      "ptions": 3973,
      "start": 3974,
      "positions": 3975,
      "boundary": 3976,
      "AC": 3977,
      "tun": 3978,
      "structural": 3979,
      "track": 3980,
      "1995": 3981,
      "Met": 3982,
      "ging": 3983,
      "utive": 3984,
      "actors": 3985,
      "schools": 3986,
      "progress": 3987,
      "ellular": 3988,
      "AP": 3989,
      "astern": 3990,
      "ilbert": 3991,
      "Serv": 3992,
      "electromag": 3993,
      "\")": 3994,
      "holds": 3995,
      "allel": 3996,
      "01": 3997,
      "arbit": 3998,
      "migration": 3999,
      ",\"": 4000,
      "proced": 4001,
      "concepts": 4002,
      "collabor": 4003,
      "framework": 4004,
      "Post": 4005,
      "Wash": 4006,
      "west": 4007,
      "biom": 4008,
      "repair": 4009,
      "^{-": 4010,
      "images": 4011,
      "ATP": 4012,
      "diagnos": 4013,
      "ustr": 4014,
      "utili": 4015,
      "informa": 4016,
      "domestic": 4017,
      "Party": 4018,
      "hole": 4019,
      "argued": 4020,
      "hind": 4021,
      "rul": 4022,
      "soil": 4023,
      "containing": 4024,
      "gold": 4025,
      "sound": 4026,
      "stood": 4027,
      "currently": 4028,
      "efforts": 4029,
      "Sal": 4030,
      "overall": 4031,
      "contact": 4032,
      "sympto": 4033,
      "figures": 4034,
      "PDF": 4035,
      "largely": 4036,
      "tz": 4037,
      "}}{": 4038,
      "valu": 4039,
      "closely": 4040,
      "Studies": 4041,
      "poor": 4042,
      "Both": 4043,
      "oe": 4044,
      "acet": 4045,
      "lies": 4046,
      "Notes": 4047,
      "joint": 4048,
      "you": 4049,
      "molecule": 4050,
      "combined": 4051,
      "channel": 4052,
      "500": 4053,
      "slow": 4054,
      "ests": 4055,
      "processing": 4056,
      "Way": 4057,
      "coast": 4058,
      "detect": 4059,
      "gers": 4060,
      "isions": 4061,
      "ferm": 4062,
      "appropri": 4063,
      "Ir": 4064,
      "fa": 4065,
      "mostly": 4066,
      "Political": 4067,
      "zo": 4068,
      "shape": 4069,
      "protect": 4070,
      "discovery": 4071,
      "campaign": 4072,
      "gin": 4073,
      "teach": 4074,
      "useum": 4075,
      "Sum": 4076,
      "leq": 4077,
      "season": 4078,
      "proved": 4079,
      "presented": 4080,
      "foot": 4081,
      "attr": 4082,
      "divided": 4083,
      "polymer": 4084,
      "Land": 4085,
      "notation": 4086,
      "Techn": 4087,
      "uit": 4088,
      "relationships": 4089,
      "classification": 4090,
      "Cri": 4091,
      "bs": 4092,
      "cust": 4093,
      "eding": 4094,
      "metic": 4095,
      "highest": 4096,
      "importance": 4097,
      "lym": 4098,
      "protection": 4099,
      "coefficients": 4100,
      "lore": 4101,
      "1991": 4102,
      "nu": 4103,
      "evalu": 4104,
      "reduction": 4105,
      "principles": 4106,
      "tum": 4107,
      "inher": 4108,
      "describes": 4109,
      "consistent": 4110,
      "atively": 4111,
      "statistics": 4112,
      "beyond": 4113,
      "Pat": 4114,
      "Ze": 4115,
      "lost": 4116,
      "Northern": 4117,
      "articles": 4118,
      "interpretation": 4119,
      "Gold": 4120,
      "indi": 4121,
      "stead": 4122,
      "pti": 4123,
      "implies": 4124,
      "academic": 4125,
      "Scho": 4126,
      "mam": 4127,
      "uries": 4128,
      "originally": 4129,
      "ns": 4130,
      "fiction": 4131,
      "trees": 4132,
      "rig": 4133,
      "replaced": 4134,
      "conjecture": 4135,
      "cam": 4136,
      "Phy": 4137,
      "festival": 4138,
      "Indu": 4139,
      "integer": 4140,
      "supported": 4141,
      "claimed": 4142,
      "Eth": 4143,
      "bri": 4144,
      "Ther": 4145,
      "reland": 4146,
      "habit": 4147,
      "induced": 4148,
      "ander": 4149,
      "involving": 4150,
      "Early": 4151,
      "philosophy": 4152,
      "San": 4153,
      "accept": 4154,
      "forced": 4155,
      "places": 4156,
      "concerns": 4157,
      "Cali": 4158,
      "nutrition": 4159,
      "89": 4160,
      "clust": 4161,
      "omal": 4162,
      "unding": 4163,
      "providing": 4164,
      "Engineering": 4165,
      "Jose": 4166,
      "Mag": 4167,
      "physic": 4168,
      "Roy": 4169,
      "tely": 4170,
      "ya": 4171,
      "optical": 4172,
      "players": 4173,
      "appears": 4174,
      "enzyme": 4175,
      "87": 4176,
      "Found": 4177,
      "today": 4178,
      "diver": 4179,
      "config": 4180,
      "belief": 4181,
      "passed": 4182,
      "antibodies": 4183,
      "MR": 4184,
      "fri": 4185,
      "pure": 4186,
      "smo": 4187,
      "explain": 4188,
      "eventually": 4189,
      "Riemann": 4190,
      "Bell": 4191,
      "Ireland": 4192,
      "revolution": 4193,
      "hbar": 4194,
      "apse": 4195,
      "strand": 4196,
      "III": 4197,
      "brought": 4198,
      "purpose": 4199,
      "dominant": 4200,
      "Langu": 4201,
      "hi": 4202,
      "1950": 4203,
      "kets": 4204,
      "coher": 4205,
      "1996": 4206,
      "Washington": 4207,
      "43": 4208,
      "drugs": 4209,
      "ER": 4210,
      "Mer": 4211,
      "story": 4212,
      "1993": 4213,
      "Pow": 4214,
      "replication": 4215,
      "rover": 4216,
      "union": 4217,
      "osen": 4218,
      "connection": 4219,
      "suggests": 4220,
      "MS": 4221,
      "fits": 4222,
      "})": 4223,
      "carry": 4224,
      "gar": 4225,
      "efficiency": 4226,
      "ecological": 4227,
      "utional": 4228,
      "mention": 4229,
      "integration": 4230,
      "standards": 4231,
      "wall": 4232,
      "stone": 4233,
      "shap": 4234,
      "Ca": 4235,
      "Te": 4236,
      "seven": 4237,
      "1990": 4238,
      "itors": 4239,
      "discrete": 4240,
      "regional": 4241,
      "medium": 4242,
      "ropy": 4243,
      "numerous": 4244,
      "ona": 4245,
      "ods": 4246,
      "Liber": 4247,
      "citizens": 4248,
      "(\"": 4249,
      "Bud": 4250,
      "py": 4251,
      "thin": 4252,
      "arri": 4253,
      "lege": 4254,
      "spor": 4255,
      "bour": 4256,
      "Delta": 4257,
      "Civil": 4258,
      "Cold": 4259,
      "here": 4260,
      "north": 4261,
      "external": 4262,
      "bul": 4263,
      "clo": 4264,
      "Championship": 4265,
      "fire": 4266,
      "cred": 4267,
      "Ha": 4268,
      "robo": 4269,
      "explicit": 4270,
      "Information": 4271,
      "assist": 4272,
      "Bro": 4273,
      "patient": 4274,
      "ll": 4275,
      "powers": 4276,
      "OS": 4277,
      "detection": 4278,
      "families": 4279,
      "69": 4280,
      "}}{\\": 4281,
      "gain": 4282,
      "Lu": 4283,
      "gment": 4284,
      "sport": 4285,
      "controlled": 4286,
      "Dirac": 4287,
      "Natural": 4288,
      "interval": 4289,
      "187": 4290,
      "relevant": 4291,
      "months": 4292,
      "depends": 4293,
      "textstyle": 4294,
      "People": 4295,
      "eli": 4296,
      "anted": 4297,
      "agement": 4298,
      "devices": 4299,
      "agon": 4300,
      "recognition": 4301,
      "Den": 4302,
      "deliver": 4303,
      "title": 4304,
      "sciences": 4305,
      "VR": 4306,
      "gi": 4307,
      "spective": 4308,
      "ymes": 4309,
      "channels": 4310,
      "emotion": 4311,
      "eration": 4312,
      "axi": 4313,
      "Asian": 4314,
      "yield": 4315,
      "genetics": 4316,
      "website": 4317,
      "zy": 4318,
      "acids": 4319,
      "fications": 4320,
      "appeared": 4321,
      "recognized": 4322,
      "omorphism": 4323,
      "strategy": 4324,
      "Bol": 4325,
      "names": 4326,
      "ois": 4327,
      "ordered": 4328,
      "focused": 4329,
      "Bern": 4330,
      "Standard": 4331,
      "Cap": 4332,
      "EU": 4333,
      "bot": 4334,
      "plat": 4335,
      "absol": 4336,
      "match": 4337,
      "movements": 4338,
      "Louis": 4339,
      "gly": 4340,
      "lie": 4341,
      "scal": 4342,
      "characterized": 4343,
      "07": 4344,
      "Gene": 4345,
      "sess": 4346,
      "characteristic": 4347,
      "Music": 4348,
      "exer": 4349,
      "noted": 4350,
      "equip": 4351,
      "}(\\": 4352,
      "sexual": 4353,
      "',": 4354,
      "attrib": 4355,
      "acters": 4356,
      "Systems": 4357,
      "Pak": 4358,
      "Sto": 4359,
      "thy": 4360,
      "aring": 4361,
      "myth": 4362,
      "Scienti": 4363,
      "universal": 4364,
      "promis": 4365,
      "correlation": 4366,
      "complement": 4367,
      "authors": 4368,
      "promote": 4369,
      "concerned": 4370,
      "ML": 4371,
      "rist": 4372,
      "whereas": 4373,
      "Court": 4374,
      "Life": 4375,
      "03": 4376,
      "otic": 4377,
      "metal": 4378,
      "electronic": 4379,
      "nearly": 4380,
      "demonstrated": 4381,
      "sufficient": 4382,
      "Fre": 4383,
      "sively": 4384,
      "situation": 4385,
      "alysis": 4386,
      "coal": 4387,
      "pathways": 4388,
      "press": 4389,
      "Also": 4390,
      "cyclop": 4391,
      "thous": 4392,
      "lighten": 4393,
      "Sever": 4394,
      "gs": 4395,
      "rac": 4396,
      "vectors": 4397,
      "iso": 4398,
      "keep": 4399,
      "ventions": 4400,
      "Program": 4401,
      "Meth": 4402,
      "phenomenon": 4403,
      "abs": 4404,
      "sper": 4405,
      "standing": 4406,
      "sities": 4407,
      "reser": 4408,
      "parallel": 4409,
      "modeling": 4410,
      "Spain": 4411,
      "represents": 4412,
      "Califor": 4413,
      "conj": 4414,
      "signaling": 4415,
      "professional": 4416,
      "Lie": 4417,
      "rare": 4418,
      "quick": 4419,
      "sequencing": 4420,
      "opposite": 4421,
      "nations": 4422,
      "Jew": 4423,
      "ensure": 4424,
      "user": 4425,
      "adox": 4426,
      "characteristics": 4427,
      "consumption": 4428,
      "spatial": 4429,
      "Age": 4430,
      "jus": 4431,
      "inno": 4432,
      "efficient": 4433,
      "ares": 4434,
      "ultim": 4435,
      "genous": 4436,
      "Federal": 4437,
      "infin": 4438,
      "east": 4439,
      "vacu": 4440,
      "reached": 4441,
      "western": 4442,
      "resi": 4443,
      "practices": 4444,
      "rot": 4445,
      "macro": 4446,
      "Op": 4447,
      "ali": 4448,
      "river": 4449,
      "stra": 4450,
      "Mi": 4451,
      "Tai": 4452,
      "understood": 4453,
      "introduction": 4454,
      "omin": 4455,
      "surro": 4456,
      "technical": 4457,
      "1960s": 4458,
      "acceler": 4459,
      "Schr": 4460,
      "86": 4461,
      "Committee": 4462,
      "1992": 4463,
      "background": 4464,
      "inside": 4465,
      "actually": 4466,
      "shift": 4467,
      "Korea": 4468,
      "How": 4469,
      "Hilbert": 4470,
      "ken": 4471,
      "tively": 4472,
      "Space": 4473,
      "informatics": 4474,
      "CL": 4475,
      "Gam": 4476,
      "Arti": 4477,
      "CS": 4478,
      "ES": 4479,
      "Nan": 4480,
      "input": 4481,
      "attention": 4482,
      "notion": 4483,
      "Isra": 4484,
      "ochemistry": 4485,
      "err": 4486,
      "behind": 4487,
      "condens": 4488,
      "peak": 4489,
      "transmit": 4490,
      "advanced": 4491,
      "Mat": 4492,
      "mother": 4493,
      "characters": 4494,
      "norm": 4495,
      "lightenment": 4496,
      "California": 4497,
      "Educ": 4498,
      "comb": 4499,
      "harmon": 4500,
      "birth": 4501,
      "young": 4502,
      "ulf": 4503,
      "utch": 4504,
      "supply": 4505,
      "environments": 4506,
      "Physical": 4507,
      "oming": 4508,
      "Encyclop": 4509,
      "BA": 4510,
      "rho": 4511,
      "omb": 4512,
      "portun": 4513,
      "Americans": 4514,
      "110": 4515,
      "lif": 4516,
      "Nature": 4517,
      "fir": 4518,
      "recover": 4519,
      "producing": 4520,
      "completely": 4521,
      "description": 4522,
      "emissions": 4523,
      "cand": 4524,
      "latter": 4525,
      "split": 4526,
      "dinger": 4527,
      "lig": 4528,
      "south": 4529,
      "astructure": 4530,
      "inequality": 4531,
      "label": 4532,
      "Sy": 4533,
      "vehic": 4534,
      "forests": 4535,
      "Bor": 4536,
      "pack": 4537,
      "district": 4538,
      "composed": 4539,
      "money": 4540,
      "liquid": 4541,
      "57": 4542,
      "Clim": 4543,
      "}=\\": 4544,
      "ows": 4545,
      "uded": 4546,
      "adopted": 4547,
      "anc": 4548,
      "dead": 4549,
      "expo": 4550,
      "That": 4551,
      "bring": 4552,
      "Arts": 4553,
      "starting": 4554,
      "conducted": 4555,
      "fu": 4556,
      "ophys": 4557,
      "orth": 4558,
      "Intro": 4559,
      "output": 4560,
      "police": 4561,
      "categories": 4562,
      "Australian": 4563,
      "extension": 4564,
      "index": 4565,
      "Pakistan": 4566,
      "bud": 4567,
      "tism": 4568,
      "waste": 4569,
      "lattice": 4570,
      "physi": 4571,
      "lingu": 4572,
      "mir": 4573,
      "roots": 4574,
      "earth": 4575,
      "confir": 4576,
      "maximum": 4577,
      "atmosphere": 4578,
      "fill": 4579,
      "wan": 4580,
      "tosis": 4581,
      "deep": 4582,
      "fying": 4583,
      "enzymes": 4584,
      "atal": 4585,
      "influenced": 4586,
      "resource": 4587,
      "extinc": 4588,
      "balance": 4589,
      ")=\\": 4590,
      "nes": 4591,
      "zes": 4592,
      "explan": 4593,
      "statement": 4594,
      "km": 4595,
      "Organization": 4596,
      "Schrdinger": 4597,
      "depending": 4598,
      "1989": 4599,
      "Ec": 4600,
      "pairs": 4601,
      "Mexico": 4602,
      "va": 4603,
      "ypt": 4604,
      "load": 4605,
      "undred": 4606,
      "aneous": 4607,
      "Desp": 4608,
      "s_": 4609,
      "elimin": 4610,
      "remained": 4611,
      "53": 4612,
      "pa": 4613,
      "encour": 4614,
      "idden": 4615,
      "Furthermore": 4616,
      "Springer": 4617,
      "surrounding": 4618,
      "04": 4619,
      "Eastern": 4620,
      "wal": 4621,
      "scen": 4622,
      "Solar": 4623,
      "database": 4624,
      "\\{": 4625,
      "aving": 4626,
      "solved": 4627,
      "ideal": 4628,
      "maintain": 4629,
      "08": 4630,
      "2nd": 4631,
      "funding": 4632,
      "build": 4633,
      "complexity": 4634,
      "logical": 4635,
      "God": 4636,
      "Sha": 4637,
      "middle": 4638,
      "derivative": 4639,
      "sustainable": 4640,
      "facilit": 4641,
      "Psych": 4642,
      "Int": 4643,
      "Several": 4644,
      "Brown": 4645,
      "rever": 4646,
      "cultures": 4647,
      "measurements": 4648,
      "invent": 4649,
      "Despite": 4650,
      "Ke": 4651,
      "libr": 4652,
      "contem": 4653,
      "award": 4654,
      "ET": 4655,
      "iation": 4656,
      "ww": 4657,
      "matr": 4658,
      "Bul": 4659,
      "m_": 4660,
      "resid": 4661,
      "omorphic": 4662,
      "competition": 4663,
      "Ocean": 4664,
      "Sen": 4665,
      "constructed": 4666,
      "argument": 4667,
      "lide": 4668,
      "1980s": 4669,
      "continue": 4670,
      "School": 4671,
      "emic": 4672,
      "architecture": 4673,
      "economics": 4674,
      "Martin": 4675,
      "symptoms": 4676,
      "ets": 4677,
      "recomm": 4678,
      "programming": 4679,
      "photons": 4680,
      "63": 4681,
      "acetyl": 4682,
      "Kh": 4683,
      "canon": 4684,
      "Enlightenment": 4685,
      "female": 4686,
      "oxygen": 4687,
      "-{\\": 4688,
      "Hall": 4689,
      "IR": 4690,
      "mers": 4691,
      "spect": 4692,
      "expect": 4693,
      "Islamic": 4694,
      "Gr": 4695,
      "oft": 4696,
      "abstr": 4697,
      "occurred": 4698,
      "scholars": 4699,
      "Portug": 4700,
      "fies": 4701,
      "appar": 4702,
      "ided": 4703,
      "pepti": 4704,
      "bloc": 4705,
      "costs": 4706,
      "northern": 4707,
      "advantage": 4708,
      "oscill": 4709,
      "Bu": 4710,
      "ucle": 4711,
      "achieved": 4712,
      "situ": 4713,
      "CC": 4714,
      "cis": 4715,
      "imag": 4716,
      "forming": 4717,
      "Security": 4718,
      "benefits": 4719,
      "discipline": 4720,
      "conservation": 4721,
      "spectrum": 4722,
      "arrest": 4723,
      "intended": 4724,
      "controver": 4725,
      "things": 4726,
      "oma": 4727,
      "omatic": 4728,
      "court": 4729,
      "regulatory": 4730,
      "distinguish": 4731,
      "Cr": 4732,
      "Equ": 4733,
      "Sym": 4734,
      "entropy": 4735,
      "otyp": 4736,
      "grees": 4737,
      "authorities": 4738,
      "uniform": 4739,
      "fair": 4740,
      "Max": 4741,
      "02": 4742,
      "actual": 4743,
      "income": 4744,
      "vertices": 4745,
      "udes": 4746,
      "actor": 4747,
      "onses": 4748,
      "traits": 4749,
      "Philos": 4750,
      "regarding": 4751,
      "agreement": 4752,
      "launched": 4753,
      "gave": 4754,
      "pict": 4755,
      "rock": 4756,
      "frag": 4757,
      "Ban": 4758,
      "Red": 4759,
      "eight": 4760,
      "von": 4761,
      "spacetime": 4762,
      "Indones": 4763,
      "Of": 4764,
      "Pac": 4765,
      "ecology": 4766,
      "strength": 4767,
      "transi": 4768,
      "musical": 4769,
      "Viet": 4770,
      "Ur": 4771,
      "stability": 4772,
      "trig": 4773,
      "opportun": 4774,
      "upper": 4775,
      "giving": 4776,
      "Additionally": 4777,
      "Medical": 4778,
      "Joseph": 4779,
      "explo": 4780,
      "carried": 4781,
      "television": 4782,
      "Differ": 4783,
      "exposure": 4784,
      "matrices": 4785,
      "forward": 4786,
      "promin": 4787,
      "apers": 4788,
      "Project": 4789,
      "reducing": 4790,
      "invariant": 4791,
      "users": 4792,
      "}}}\\": 4793,
      "anthropology": 4794,
      "Egypt": 4795,
      "Tex": 4796,
      "inj": 4797,
      "ston": 4798,
      "chi": 4799,
      "uting": 4800,
      "maps": 4801,
      "elementary": 4802,
      "Big": 4803,
      "goals": 4804,
      "changing": 4805,
      "instruments": 4806,
      "electromagnetic": 4807,
      "except": 4808,
      "hosp": 4809,
      "challenges": 4810,
      "\\,": 4811,
      "job": 4812,
      "asi": 4813,
      "paradox": 4814,
      "ratio": 4815,
      "cognitive": 4816,
      "300": 4817,
      "Jac": 4818,
      "Using": 4819,
      "mode": 4820,
      "feel": 4821,
      "Acade": 4822,
      "planet": 4823,
      "marked": 4824,
      "copy": 4825,
      "thor": 4826,
      "degrad": 4827,
      "chond": 4828,
      "moving": 4829,
      "illustr": 4830,
      "candid": 4831,
      "DP": 4832,
      "Games": 4833,
      "zone": 4834,
      "error": 4835,
      "agents": 4836,
      "compl": 4837,
      "desp": 4838,
      "Mechan": 4839,
      "mach": 4840,
      "peace": 4841,
      "tradition": 4842,
      "cru": 4843,
      "stein": 4844,
      "install": 4845,
      "stimul": 4846,
      "64": 4847,
      "uss": 4848,
      "monitor": 4849,
      "diagram": 4850,
      "appropriate": 4851,
      "sun": 4852,
      "seud": 4853,
      "degrees": 4854,
      "responses": 4855,
      "Georg": 4856,
      "Lag": 4857,
      "SU": 4858,
      "fold": 4859,
      "mation": 4860,
      "aters": 4861,
      "asc": 4862,
      "stop": 4863,
      "dual": 4864,
      "caus": 4865,
      "differentiation": 4866,
      "anes": 4867,
      "mixed": 4868,
      "Lor": 4869,
      "atell": 4870,
      "osis": 4871,
      "signals": 4872,
      "arbitrary": 4873,
      "92": 4874,
      "A_": 4875,
      "vised": 4876,
      "belong": 4877,
      "Volume": 4878,
      "propag": 4879,
      "Dar": 4880,
      "ees": 4881,
      "uan": 4882,
      "ita": 4883,
      "acces": 4884,
      "marine": 4885,
      "charged": 4886,
      "simult": 4887,
      "scatter": 4888,
      "governments": 4889,
      "capable": 4890,
      "deaths": 4891,
      "killed": 4892,
      "went": 4893,
      "arts": 4894,
      "omer": 4895,
      "nucleus": 4896,
      "94": 4897,
      "Vic": 4898,
      "reh": 4899,
      "thermal": 4900,
      "angular": 4901,
      "neurons": 4902,
      "Data": 4903,
      "NF": 4904,
      "coming": 4905,
      "ota": 4906,
      "Netw": 4907,
      "gate": 4908,
      "whales": 4909,
      "akes": 4910,
      "centuries": 4911,
      "feed": 4912,
      "ieval": 4913,
      "Sciences": 4914,
      "purposes": 4915,
      "dy": 4916,
      "raft": 4917,
      "safety": 4918,
      "acellular": 4919,
      "atorial": 4920,
      "invas": 4921,
      "requirements": 4922,
      "colonial": 4923,
      "despite": 4924,
      "Tran": 4925,
      "icy": 4926,
      "Their": 4927,
      "ogenetic": 4928,
      "director": 4929,
      "prov": 4930,
      "visions": 4931,
      "parameter": 4932,
      "coordinates": 4933,
      "Bre": 4934,
      "why": 4935,
      "temperatures": 4936,
      "practical": 4937,
      "coupling": 4938,
      "Climate": 4939,
      "subsequent": 4940,
      "vacuum": 4941,
      "Saint": 4942,
      "parks": 4943,
      "White": 4944,
      "pointed": 4945,
      "histone": 4946,
      "identical": 4947,
      "Dutch": 4948,
      "ners": 4949,
      "edges": 4950,
      "consci": 4951,
      "initially": 4952,
      "ogenesis": 4953,
      "lymph": 4954,
      "Jer": 4955,
      "SR": 4956,
      "lu": 4957,
      "phag": 4958,
      "ocity": 4959,
      "accum": 4960,
      "office": 4961,
      "Bang": 4962,
      "uncertain": 4963,
      "flat": 4964,
      "virus": 4965,
      "ukary": 4966,
      "imal": 4967,
      "axis": 4968,
      "Curr": 4969,
      "planning": 4970,
      "fast": 4971,
      "hair": 4972,
      "Conserv": 4973,
      "conflict": 4974,
      "causing": 4975,
      "democratic": 4976,
      "58": 4977,
      "Southern": 4978,
      "ini": 4979,
      "unknown": 4980,
      "Analysis": 4981,
      "views": 4982,
      "dio": 4983,
      "commut": 4984,
      "device": 4985,
      "Philipp": 4986,
      "sports": 4987,
      "exerc": 4988,
      "hous": 4989,
      "ni": 4990,
      "motions": 4991,
      "employed": 4992,
      "increasingly": 4993,
      "iron": 4994,
      "anger": 4995,
      "lem": 4996,
      "neighbor": 4997,
      "Hor": 4998,
      "Mental": 4999
    },
    "merges": [
      "t h",
      "i n",
      "a n",
      "e r",
      "o n",
      "th e",
      "t i",
      "e n",
      "r e",
      "a l",
      "o r",
      "i s",
      "e s",
      "o f",
      "e d",
      "a t",
      "a r",
      "an d",
      "ti on",
      "a s",
      "i c",
      "l e",
      "in g",
      "s t",
      "r o",
      "t o",
      "i t",
      "< <",
      "> >",
      "en t",
      "a c",
      "e l",
      "a tion",
      "o m",
      "o l",
      "o u",
      "e c",
      "h e",
      "s e",
      "d e",
      "i l",
      "f or",
      "c h",
      "t er",
      "a m",
      "p l",
      "s i",
      "t r",
      "<< <<",
      ">> >>",
      "u l",
      "b e",
      "c e",
      "a y",
      "v e",
      "l y",
      "p ro",
      "d i",
      "u n",
      "u r",
      "c on",
      "v er",
      "T he",
      "ti c",
      "a p",
      "m o",
      "u m",
      "d is",
      "w i",
      "i g",
      "re s",
      "a b",
      "o w",
      "a re",
      "th at",
      "i m",
      "u s",
      "e x",
      "i r",
      "w h",
      "t s",
      "a d",
      "{ \\",
      "e m",
      "o p",
      "a g",
      "q u",
      "b y",
      "s u",
      "o g",
      "wi th",
      "m ent",
      "c om",
      "it y",
      "th er",
      "o t",
      "i d",
      "m a",
      "I n",
      "s p",
      "2 0",
      "c i",
      "at e",
      "pl ay",
      "r i",
      "m e",
      "u c",
      "p er",
      "1 9",
      "u t",
      "s o",
      "c l",
      "<<<< <<<<",
      ">>>> >>>>",
      "st y",
      "al l",
      "ic al",
      "sty le",
      "dis play",
      "g e",
      "p h",
      "display style",
      "d er",
      "o s",
      "a in",
      "n e",
      "ro m",
      "is t",
      "l i",
      "p ar",
      "w as",
      "f f",
      "ou n",
      "er e",
      "ic h",
      "an t",
      "u re",
      "el l",
      "o d",
      "ol og",
      "f rom",
      "in e",
      "at ed",
      "c es",
      "g en",
      "er s",
      "ig h",
      "or y",
      "for m",
      "i es",
      "} }",
      "T h",
      "en ce",
      "o c",
      "s h",
      "st r",
      "h a",
      "t e",
      "wh ich",
      "t w",
      "s y",
      "com p",
      "ation s",
      "c an",
      "e t",
      "a ti",
      "v el",
      "an s",
      "v i",
      "ec t",
      "0 0",
      "ar y",
      "o re",
      "o ver",
      "an g",
      "es t",
      "om e",
      "r a",
      "b er",
      "tion s",
      "u d",
      "le c",
      "i f",
      "C h",
      "n ot",
      "si on",
      "i z",
      "m an",
      ") .",
      "u p",
      "al ly",
      "p e",
      "en d",
      "on e",
      "l d",
      "p o",
      "or t",
      "ou r",
      "i on",
      "e v",
      "d uc",
      "g h",
      "it s",
      "ou s",
      "i a",
      "a u",
      "en ti",
      "ac h",
      "ar d",
      "ac t",
      "b l",
      "ha ve",
      "o ther",
      "p res",
      "ab le",
      "al so",
      "p r",
      "k e",
      "as s",
      "es s",
      "w or",
      "olog y",
      "re c",
      "g r",
      "in ter",
      "ou t",
      "an ce",
      "h as",
      "o b",
      "st em",
      "t y",
      "<<<<<<<< <<<<<<<<",
      ">>>>>>>> >>>>>>>>",
      "at es",
      "i al",
      "is h",
      "ec h",
      "on g",
      "am e",
      "i p",
      "in t",
      "ac e",
      "con t",
      "ag e",
      "th is",
      ") ,",
      "il l",
      "y s",
      "f i",
      "as e",
      "e ar",
      "ation al",
      "i v",
      "c re",
      "c o",
      "re l",
      "p le",
      "ul t",
      "su ch",
      "igh t",
      "i b",
      "f in",
      "w ere",
      "ti es",
      "ar i",
      "p re",
      "m s",
      "e w",
      "ent s",
      "b o",
      "or s",
      "the ir",
      "oun d",
      "ow n",
      "f er",
      "a k",
      "g ro",
      "ti ve",
      "a v",
      "U n",
      "sp ec",
      "20 1",
      "f un",
      "ic s",
      "d es",
      "b r",
      "ul ar",
      "s er",
      "tic al",
      "k s",
      "p ort",
      "m on",
      "sy stem",
      "R e",
      "p ol",
      "b i",
      "c ell",
      "d u",
      "h y",
      "in cl",
      "us ed",
      "b le",
      "at er",
      "t ed",
      "f r",
      "A n",
      "S t",
      "re g",
      "l ow",
      "20 0",
      "as t",
      "c ri",
      "Th is",
      "di ff",
      "t en",
      "u tion",
      "or g",
      "d el",
      "vel op",
      "mo re",
      "tr ans",
      "ac k",
      "c ent",
      "d ing",
      "m in",
      "ou ld",
      "re e",
      "p t",
      "m er",
      "f ic",
      "be en",
      "ter n",
      "so ci",
      "c y",
      "b ut",
      "el d",
      "ces s",
      "ar ch",
      "1 0",
      "su b",
      "u al",
      "ir st",
      "I t",
      "i an",
      "gen er",
      "ati ve",
      "n um",
      "d o",
      "p os",
      "is m",
      "it e",
      "e qu",
      "in s",
      "v al",
      "fun c",
      "u st",
      "c or",
      "s ome",
      "e ver",
      "ti m",
      "de velop",
      "tr y",
      "f l",
      "e en",
      "er g",
      "c ol",
      "u bl",
      "A r",
      "t a",
      "^ {",
      "1 8",
      "a w",
      "tic s",
      "diff er",
      "on d",
      "as ed",
      "tw o",
      "f irst",
      "A R",
      "n o",
      "se t",
      "e lec",
      "c oun",
      "l es",
      "tw een",
      "pro duc",
      "u gh",
      "th ro",
      "c ur",
      "v ari",
      "in to",
      "i ver",
      "A l",
      "b ec",
      "the ory",
      "ech n",
      "be tween",
      "ti me",
      "par tic",
      "E n",
      "I C",
      "w e",
      "th an",
      "e ff",
      "on s",
      "t ing",
      "L E",
      "u se",
      "ment s",
      "f e",
      "un der",
      "at ing",
      "ist ory",
      "s c",
      "ex t",
      "N A",
      "el y",
      "str uc",
      "ant um",
      "an y",
      "C om",
      "ig n",
      "ma th",
      "o se",
      "N T",
      "v es",
      "en ces",
      "mo st",
      "o od",
      "l and",
      "ur al",
      "\" .",
      "en s",
      "the y",
      "wh ere",
      "k n",
      "m ay",
      "u e",
      "it ed",
      "re d",
      "AR T",
      "m il",
      "il ity",
      "v ed",
      "IC LE",
      "ART ICLE",
      "v ir",
      "p ubl",
      "v ol",
      "si g",
      "es e",
      "res p",
      "al s",
      "s ol",
      "m ed",
      "incl ud",
      "v id",
      "ther e",
      "at ure",
      "m un",
      "olog ical",
      "d ec",
      "mo del",
      "s ec",
      "c er",
      "h is",
      "the se",
      "l ar",
      "or der",
      "erg y",
      "ur ing",
      "fi eld",
      "wor k",
      "tr a",
      "al th",
      "man y",
      "m is",
      "a th",
      "r an",
      "r en",
      "ex am",
      "y n",
      "en g",
      "h igh",
      "i le",
      "l ine",
      "if ic",
      "f ore",
      "gro up",
      "in d",
      "u res",
      "C O",
      "an n",
      "thro ugh",
      "19 9",
      "sig n",
      "F or",
      "ou gh",
      "ap ter",
      "h ad",
      "ti t",
      "r ap",
      "D e",
      "O R",
      "on ly",
      "p s",
      "comp le",
      "s ci",
      "di tion",
      "func tion",
      "w ay",
      "ol d",
      "num ber",
      "o k",
      "v is",
      "um an",
      "a f",
      "st ud",
      "C on",
      "t ain",
      "c r",
      "Ch apter",
      "g l",
      "org an",
      "wh o",
      "pres ent",
      "op er",
      "l in",
      "ic e",
      "p or",
      "en ergy",
      "u ro",
      "iz ation",
      "pl ic",
      "wi k",
      "res s",
      "m ar",
      "pro cess",
      "over n",
      "v en",
      "ec ts",
      "1 7",
      "me th",
      "<<<<<<<<<<<<<<<< <<<<<<<<<<<<<<<<",
      ">>>>>>>>>>>>>>>> >>>>>>>>>>>>>>>>",
      "ac ti",
      "an ti",
      "de p",
      "the n",
      "iz ed",
      "f act",
      "m at",
      "at or",
      "u g",
      "il y",
      "f ol",
      "re qu",
      "A I",
      "ul ation",
      "s ur",
      "r it",
      "qu antum",
      "as es",
      "ne w",
      "c all",
      "st ate",
      "P h",
      "ph ys",
      "se qu",
      "l oc",
      "re at",
      "t echn",
      "y ear",
      "v ing",
      "en e",
      "i de",
      "f ul",
      "ment al",
      "A s",
      "l o",
      "par t",
      "ch ar",
      "in cre",
      "P ro",
      "I D",
      "wh en",
      "ab ility",
      "20 2",
      "l ed",
      "con s",
      "w ell",
      "r is",
      "mer ic",
      "l ang",
      "e p",
      "ac tion",
      "kn own",
      "tr ib",
      "enti al",
      "h er",
      "on om",
      "c he",
      "vir on",
      "a ir",
      "A meric",
      "m en",
      "I S",
      "form ation",
      "H e",
      "} \\",
      "an al",
      "S e",
      "p op",
      "n on",
      "00 0",
      "A c",
      "se arch",
      "ap pro",
      "struc t",
      "sp ace",
      "au se",
      "pro te",
      "E x",
      "k ing",
      "un d",
      "1 5",
      "tr ic",
      "exam ple",
      "su p",
      "gen e",
      "c al",
      "w ould",
      "stud y",
      "di rec",
      "or d",
      "b in",
      "g overn",
      "iver s",
      "ar t",
      "w ill",
      "at t",
      "de fin",
      "per i",
      "in ce",
      "s ing",
      "cell s",
      "ag es",
      "S o",
      "ti l",
      "f ound",
      "e ach",
      "call ed",
      "i e",
      "m em",
      "D NA",
      "ow ever",
      "f t",
      "i ties",
      "po si",
      "differ ent",
      "al ity",
      "y l",
      "us ing",
      "ter s",
      "j ect",
      "d at",
      "is ts",
      ") }",
      "ed ia",
      "dep end",
      "m ic",
      "1 6",
      "v ity",
      "c ed",
      "d om",
      "u de",
      "og rap",
      ". .",
      "c ar",
      "the ma",
      "D _",
      "ex p",
      "h uman",
      "ech an",
      "i tion",
      "includ ing",
      "publ ic",
      "ser v",
      "ish ed",
      "1 2",
      "i th",
      "W h",
      "b ased",
      "s on",
      "g iv",
      "gr ap",
      "st and",
      "ce pt",
      "ab out",
      "ro l",
      "fol low",
      "re search",
      "n ing",
      "bo th",
      "sy m",
      "r ight",
      "lang u",
      "1 4",
      "c ap",
      "ur y",
      "be ing",
      "ical ly",
      "b ers",
      "f il",
      "di es",
      "A T",
      "p ow",
      "ARTICLE _",
      "p tion",
      "e le",
      "l im",
      "af ter",
      "des cri",
      "19 8",
      "meth od",
      "me as",
      "S p",
      "o st",
      "op le",
      "s m",
      "P ar",
      "m al",
      "le ar",
      "math b",
      "19 7",
      "li ke",
      "d uring",
      "s ame",
      "Un ited",
      "le vel",
      "pl an",
      "vi ew",
      "ac ter",
      "en viron",
      "m echan",
      "H istory",
      "M a",
      "i ed",
      "an ge",
      "si ble",
      "em ent",
      "d r",
      "t on",
      "E uro",
      "di vid",
      "system s",
      "si m",
      "sh ip",
      "le ad",
      "cont in",
      "cl ass",
      "N ew",
      "wor ld",
      "the ore",
      "of ten",
      "C E",
      "i ti",
      "B i",
      "to p",
      "ent al",
      "a e",
      "he alth",
      "or ig",
      "et y",
      "ion s",
      "u ally",
      "Euro pe",
      "t t",
      "1 3",
      "ro s",
      "st e",
      "i re",
      "el f",
      "si der",
      "it er",
      "G e",
      "ma in",
      "fl u",
      "ent ly",
      "c a",
      "ev ol",
      "the m",
      "ter m",
      "n ational",
      "c over",
      "ec onom",
      "po int",
      "L e",
      "a il",
      "Ch in",
      "b el",
      "gr am",
      "c ult",
      "is e",
      "ic i",
      "st ates",
      "vel y",
      "pow er",
      "res ult",
      "fr ac",
      "wh ile",
      "w ard",
      "develop ment",
      "u b",
      "pro ble",
      "ex pres",
      "g o",
      "all ow",
      "re ad",
      "pe ople",
      "or k",
      "orig in",
      "l ight",
      "be g",
      "G er",
      "spec ies",
      "dat a",
      "gener al",
      "o ve",
      "Th ese",
      "ivers ity",
      "w ar",
      "m i",
      "h istory",
      "si ve",
      "ch o",
      "grap h",
      "ul ti",
      "con sider",
      "g er",
      "al e",
      "t or",
      "cent ury",
      "19 6",
      "ut e",
      "ch ange",
      "ph o",
      "d ic",
      "g u",
      "im port",
      "pl es",
      "resp on",
      "r y",
      "tim es",
      "with in",
      "ate g",
      "il d",
      "o y",
      "l ess",
      "n or",
      "t al",
      "a ve",
      "govern ment",
      "ec tion",
      "th ough",
      "o h",
      "ing s",
      "\" ,",
      "soci al",
      "in te",
      "elec tr",
      "H owever",
      "d yn",
      "com mun",
      "th ree",
      "3 0",
      "ect ed",
      "M ar",
      "S O",
      "tr an",
      "incl ude",
      "t ur",
      "le ft",
      "l a",
      "u ch",
      "z e",
      "ys is",
      "Q u",
      "re present",
      "l aw",
      "r ang",
      "ty p",
      "comple x",
      "st u",
      "pro per",
      "B N",
      "Americ an",
      "O n",
      "en cy",
      "m y",
      ". \"",
      "Un iversity",
      "sh ow",
      "giv en",
      "fer ences",
      "sm all",
      "li on",
      "om en",
      "b ack",
      "p ot",
      "/ /",
      "ci al",
      "}} }",
      "b u",
      "in vol",
      "E G",
      "a ff",
      "ic es",
      "IS BN",
      "am es",
      "Th ere",
      "in c",
      "pr im",
      "it al",
      "n al",
      "n er",
      "sion s",
      "cont rol",
      ": //",
      "h tt",
      "pol i",
      "ro w",
      "i ev",
      "ex per",
      "com mon",
      "O M",
      "lar ge",
      "N D",
      "W ar",
      "year s",
      "p ri",
      "5 0",
      "ma de",
      "s is",
      "S ci",
      "partic ular",
      "divid ual",
      "t em",
      "c ould",
      "9 7",
      "N or",
      "St ates",
      "mo lec",
      "w ater",
      "W or",
      "id enti",
      "igh ts",
      "du e",
      "m it",
      "si de",
      "evol ution",
      "ac y",
      "W I",
      "ograp hy",
      "l ong",
      "w rit",
      "N e",
      "htt ps",
      "U R",
      "ch ang",
      "P ol",
      "i qu",
      "se ver",
      "I _",
      "re al",
      "T r",
      "j or",
      "le g",
      "gro w",
      "ter min",
      "f am",
      "or ies",
      "O F",
      "er al",
      "per form",
      "ip edia",
      "contin u",
      "m ulti",
      "dyn am",
      "at ural",
      "bec ause",
      "in dividual",
      "C AT",
      "tr ies",
      "t ro",
      "meas ure",
      "ati s",
      "b as",
      "d en",
      "sp h",
      "E ND",
      "wik i",
      "pro gram",
      ". ,",
      "l og",
      "D OM",
      "sec ond",
      "oc cur",
      "AI N",
      "p ut",
      "U NT",
      "o x",
      "W OR",
      "wik ipedia",
      "SO UR",
      "SOUR CE",
      "CO UNT",
      "OR Y",
      "WI K",
      "DOM AIN",
      "<<<<<<<<<<<<<<<< <<",
      ">>>>>>>>>>>>>>>> >>",
      "<<<<<<<<<<<<<<<<<<<<<<<<<<<<<<<< <<<<<<<<<<<<<<<<<<",
      ">>>>>>>>>>>>>>>>>>>>>>>>>>>>>>>> >>>>>>>>>>>>>>>>>>",
      "D_ COUNT",
      "ARTICLE_ ID",
      "EG ORY",
      "CAT EGORY",
      "WOR D_COUNT",
      "WIK I_",
      "ur ther",
      "d ro",
      "ab l",
      "d ay",
      "sci ence",
      "iv ed",
      "am p",
      "langu age",
      "rel ated",
      "er ing",
      "us es",
      "A d",
      "b ed",
      "an e",
      "rel ation",
      "i k",
      "der n",
      "di men",
      "is ms",
      "ou th",
      "th ose",
      "as soci",
      "c le",
      "a de",
      "dis t",
      "ect or",
      "I s",
      "in formation",
      "peri od",
      "are d",
      "li fe",
      "prote in",
      "ne ed",
      "mo ve",
      "struct ure",
      "od y",
      "Re ferences",
      "f ac",
      "1 1",
      "h ist",
      "des ign",
      "I I",
      "t ext",
      "Wor ld",
      "ar ge",
      "f ace",
      "m ical",
      ") :",
      "an ts",
      "sy n",
      "h el",
      "of f",
      "mar k",
      "ma thema",
      "ag ain",
      "cent r",
      "ac tions",
      "l ab",
      "ear ly",
      "si mil",
      "ex pl",
      "x im",
      "re le",
      "ex ist",
      "m us",
      "c ase",
      "st s",
      "in du",
      "cont ain",
      "g ra",
      "G en",
      "ver y",
      "dis e",
      "spec ific",
      "n ess",
      "import ant",
      "ev en",
      "pro vid",
      "in f",
      "exper im",
      "in es",
      "S h",
      "M o",
      "In di",
      "direc t",
      "P r",
      "b ro",
      "ma jor",
      "ros s",
      "N ational",
      "or ph",
      "duc ed",
      "vi de",
      "sup port",
      "s ince",
      "b re",
      "p ath",
      "anal ysis",
      "fic ial",
      "s um",
      "pl ac",
      "ap pe",
      "R es",
      "g est",
      "an ces",
      "g re",
      "P l",
      "B o",
      "pos ed",
      "i red",
      "theore m",
      "s k",
      "C an",
      "se e",
      "mathb f",
      "ad v",
      "trans l",
      "re f",
      "n ow",
      "n uc",
      "p i",
      "a im",
      "h ow",
      "og n",
      "i ve",
      "0 s",
      "est abl",
      "m ut",
      "19 4",
      "in ci",
      "si a",
      "ul es",
      "sever al",
      "a x",
      "b an",
      "u tions",
      "u es",
      "r ic",
      "ha vi",
      "ever y",
      "t es",
      "pl y",
      "t ak",
      "d s",
      "pos sible",
      "O r",
      "E ar",
      "b ra",
      "char acter",
      "simil ar",
      "ver s",
      "posi tion",
      "at om",
      "way s",
      "func tions",
      "a id",
      "oc k",
      "em ber",
      "loc al",
      "cor ding",
      "cer tain",
      "b ody",
      "n atural",
      "} (",
      "develop ed",
      "dis trib",
      "com bin",
      "par ti",
      "g es",
      "su c",
      "phys ical",
      "ty pe",
      "poli tical",
      "sci enti",
      "coun tries",
      "fi ed",
      "I f",
      "st ar",
      "o v",
      "d am",
      "p at",
      "dition al",
      "2 5",
      "inte gr",
      "ti sh",
      "st ri",
      "appro ach",
      "sign ific",
      "at ors",
      "defin ed",
      "pop ulation",
      "pol ic",
      "ater ial",
      "on es",
      "ul ts",
      "in flu",
      "sing le",
      "y stem",
      "follow ing",
      "J oh",
      "re fer",
      "ob al",
      "si d",
      "reg ion",
      "be havi",
      "u tr",
      "int ro",
      "l iter",
      "me t",
      "a tic",
      "l ater",
      "di tions",
      "= \\",
      "C ol",
      "C l",
      "s en",
      "ne tw",
      "y m",
      "A u",
      "su re",
      "iev ed",
      "C ar",
      "op h",
      "phys ics",
      "B ri",
      "a h",
      "our ces",
      "ac c",
      "ar ound",
      "in v",
      "B e",
      "in iti",
      "mis try",
      "ren ch",
      "ec tive",
      "sion al",
      "ap p",
      "group s",
      "du ce",
      "The y",
      "su per",
      "2 2",
      "con n",
      "E C",
      "s ed",
      "D i",
      "In tern",
      "produc tion",
      "fr ic",
      "vari ous",
      "on ic",
      "sp e",
      "sym me",
      "F rench",
      "do i",
      "u ary",
      "m ust",
      "form s",
      "equ ation",
      "c ul",
      ", \\",
      "model s",
      "b ar",
      "p ur",
      "ap plic",
      "j ects",
      "el s",
      "t est",
      "is tic",
      "c our",
      "}} \\",
      "sequ ence",
      "as h",
      "d own",
      "Se e",
      "end ed",
      "si an",
      "E NT",
      "U S",
      "f our",
      "pl ace",
      "op en",
      "W e",
      "au th",
      "fil m",
      "ph en",
      "cl os",
      "ic k",
      "97 8",
      "cur r",
      "A fric",
      "Chin a",
      ") \\",
      "r u",
      "CO NT",
      "C o",
      "S ome",
      "ol s",
      "re port",
      "CONT ENT",
      "per son",
      "im p",
      "again st",
      "at ely",
      "it ary",
      "val ue",
      "I A",
      "s it",
      "pro b",
      "stu dies",
      "am ong",
      "t arge",
      "t reat",
      "m ass",
      "ra di",
      "Europe an",
      "F r",
      "are a",
      "M e",
      "mo dern",
      "h ib",
      "pot ential",
      "comp ut",
      "Intern ational",
      "wh at",
      "eff ici",
      "a i",
      "ge bra",
      "sy ch",
      "pr of",
      "ter ms",
      "b ound",
      "pr inci",
      "er o",
      "m aterial",
      "med i",
      "f y",
      "our nal",
      "che mical",
      "es p",
      "Sci ence",
      "depend ent",
      "A t",
      "n ame",
      "signific ant",
      "do es",
      "ber t",
      "fic ation",
      "techn ology",
      "im mun",
      "Joh n",
      "de termin",
      "os s",
      "tur n",
      "2 4",
      "coun try",
      "} {",
      "duc tion",
      "mic ro",
      "associ ated",
      "lec tion",
      "ec ti",
      "ro le",
      "su g",
      "r ate",
      "proble m",
      "be fore",
      "publ ished",
      "C ent",
      "h o",
      "m ag",
      "R us",
      "Qu antum",
      "method s",
      "tem per",
      "i ther",
      "the sis",
      "de t",
      "bi ology",
      "se ts",
      "til l",
      "g or",
      "P e",
      "mil lion",
      "with out",
      "ph a",
      "Bri tish",
      "prote ins",
      "le t",
      "econom ic",
      "h ar",
      "eng ine",
      "is su",
      "a di",
      "c ir",
      "fin ite",
      "2 3",
      "tern al",
      "u ter",
      "ic t",
      "mis sion",
      "l ack",
      "S P",
      "O ne",
      "expres sion",
      "ed uc",
      "b or",
      "ar ti",
      "ord in",
      "2 7",
      "ad d",
      "ult ure",
      "at ory",
      "st ant",
      "our ce",
      "an im",
      "B r",
      "ri x",
      "reg ul",
      "consider ed",
      "4 0",
      "b it",
      "environ mental",
      "num bers",
      "c os",
      "gen es",
      "Ph ys",
      "b il",
      "min is",
      "oper ator",
      "chang es",
      "pre dic",
      "an other",
      "m uch",
      "ch ild",
      "i er",
      "P ress",
      "( \\",
      "ele ments",
      "S ch",
      "bec ame",
      "eff ect",
      "bu il",
      "g a",
      "p air",
      "f ree",
      "echn ology",
      "res ults",
      "ven tion",
      "P er",
      "s elf",
      "i ous",
      "rang le",
      "um e",
      "B y",
      "S outh",
      "f ig",
      "id s",
      "cl im",
      "hist or",
      "de f",
      "2 8",
      "2 6",
      "f oc",
      "vis ion",
      "i ally",
      "partic les",
      "al pha",
      "origin al",
      "n am",
      "19 5",
      "are as",
      "pro t",
      "ou se",
      "h and",
      "R o",
      "as ing",
      "h om",
      "se m",
      "sur face",
      "au to",
      "con struc",
      "con tr",
      "as on",
      "c ateg",
      "stand ard",
      "pro mo",
      "h ol",
      "a z",
      "mat rix",
      "re st",
      "ar s",
      "w ave",
      "dis cover",
      "gor ith",
      "m p",
      "al gebra",
      "ther n",
      "partic le",
      "L I",
      "l am",
      "ab ove",
      "con ditions",
      "im pro",
      "D ec",
      "si tion",
      "grow th",
      "2 1",
      "as si",
      "ac tive",
      "c ity",
      "tran sp",
      "u k",
      "Ma thema",
      "g ame",
      "fact ors",
      "us ually",
      "En gl",
      "v il",
      "for ce",
      "r ights",
      "con cer",
      "A f",
      "in ste",
      "to tal",
      "c are",
      "suc cess",
      "Ear th",
      "an ch",
      "ser ies",
      "math cal",
      "ma ke",
      "2 9",
      "bo ok",
      "bi o",
      "eff ects",
      "ser ved",
      "rel ati",
      "ur ity",
      "s tit",
      "l ing",
      "ke y",
      "im e",
      "spec ial",
      "id ence",
      "man ag",
      "Engl ish",
      "d ens",
      "iz e",
      "gro und",
      ". ;",
      "r ing",
      "st at",
      "vi a",
      "al es",
      "pl ied",
      "process es",
      "trans cri",
      "R NA",
      "O ut",
      "s till",
      "p p",
      "} ^{",
      "proper ties",
      "ain ed",
      "ab les",
      "pl oy",
      "cult ure",
      "me an",
      "e ither",
      "is ion",
      "c ing",
      "Nor th",
      "in o",
      "pho to",
      "bec ome",
      "M ay",
      "eng th",
      "^ {\\",
      "gene tic",
      "al ong",
      "rec ogn",
      "level s",
      "environ ment",
      "1 00",
      "um ent",
      "po st",
      "re ce",
      "un e",
      "techn iqu",
      "Ger man",
      "is on",
      "de mo",
      "p ass",
      "line ar",
      "W il",
      "in st",
      "str ong",
      "con trib",
      "ad a",
      "t le",
      "val ues",
      "acti v",
      "hel p",
      "typ es",
      "gl obal",
      "al gorith",
      "M in",
      "t re",
      "mem bers",
      "ran ge",
      "ple ment",
      "fam ily",
      "mechan ics",
      "re cept",
      "It al",
      "ain s",
      "parti al",
      "ne ar",
      "incre ase",
      "f requ",
      "n ec",
      "s ch",
      "ous ly",
      "con stant",
      "sh ould",
      "D is",
      "ap e",
      "dise ase",
      "in ts",
      "un g",
      "om es",
      "distrib ution",
      "le y",
      "comp on",
      "polic y",
      "s ite",
      "at ures",
      "em p",
      "u sion",
      "bi ological",
      "L a",
      "S ec",
      "descri bed",
      "sh ort",
      "m and",
      "me ans",
      "ind ic",
      "com e",
      "land s",
      "li am",
      "beg in",
      "P re",
      "p sych",
      "Wh en",
      "se par",
      "B C",
      "un til",
      "k ed",
      "ce p",
      "b on",
      "acti vity",
      "high er",
      "h al",
      "ti s",
      "con cept",
      "lin ks",
      "In ter",
      "incre ased",
      "O ther",
      "mathb b",
      "x ed",
      "con ver",
      "ne g",
      "es tern",
      "Ar ch",
      "d a",
      "ma king",
      "mo d",
      "f urther",
      "3 8",
      "M ed",
      "iv al",
      "v ent",
      "electr on",
      "di d",
      "t ure",
      "nuc le",
      "il os",
      "mo tion",
      "en z",
      "hy dro",
      "v ector",
      "im in",
      "c ou",
      "elec tric",
      "C oun",
      "ma int",
      "cons ist",
      "auth or",
      "behavi or",
      "I m",
      "ex peri",
      "kn ow",
      "equ ations",
      "fact or",
      "class ical",
      "writ ten",
      "Chin ese",
      "f ar",
      "Z E",
      "under stand",
      "is ed",
      "S er",
      "t ation",
      "h old",
      "che mistry",
      "av ail",
      "ene tic",
      "liter ature",
      "F e",
      "i um",
      "field s",
      "inter national",
      "ta ke",
      "Ac t",
      "sh own",
      "K ing",
      "establ ished",
      "SP EC",
      "B er",
      "c op",
      "ear ch",
      "led ge",
      "IA LI",
      "SPEC IALI",
      "SPECIALI ZE",
      "sc ale",
      "WIKI_ SPECIALIZE",
      "WIKI_SPECIALIZE D_",
      "m id",
      "T o",
      "L i",
      "sp in",
      "ain ing",
      "c od",
      "proble ms",
      "M on",
      "A p",
      "S im",
      "ap an",
      "v it",
      "ac ross",
      "En g",
      "he ad",
      "om ial",
      "M an",
      "dynam ics",
      "f low",
      ". }",
      "e f",
      "de ath",
      "N ot",
      "ph ase",
      "ad dition",
      "ev ent",
      "Ge ography",
      "c ases",
      "om an",
      "G u",
      "cl aim",
      "mat ter",
      "r and",
      "J apan",
      "dimen sional",
      "is s",
      "20 20",
      "produc ed",
      "o id",
      "cre ated",
      "j ust",
      "br id",
      "n an",
      "ay s",
      "meth yl",
      "ograp h",
      "ward s",
      "str y",
      "co de",
      "pro vide",
      "ver se",
      "li k",
      "cy cl",
      "respon se",
      "j o",
      "at ter",
      "th us",
      "es tim",
      "gener ally",
      "beg an",
      "y p",
      "fer ence",
      "p ati",
      "ir d",
      "ut ed",
      "b ur",
      "d oc",
      "l er",
      "ph i",
      "s am",
      "8 0",
      "h um",
      "ta il",
      "langu ages",
      "C D",
      "po ints",
      "ar tic",
      "ge ome",
      "ra ther",
      "6 0",
      "lab or",
      "move ment",
      "re main",
      "qu es",
      "en n",
      "A ug",
      "s or",
      "for d",
      "} {\\",
      "temper ature",
      "se en",
      "h or",
      "ar ily",
      "s es",
      "k er",
      "m ap",
      "qu ality",
      "appro xim",
      "as ter",
      "h owever",
      "Con t",
      "produc t",
      "organ isms",
      "O c",
      "at re",
      "R ec",
      "Res earch",
      "J an",
      "J ul",
      "H uman",
      "le ast",
      "multi ple",
      "m om",
      "R en",
      "stri al",
      "dr ug",
      "lim it",
      "relation ship",
      "er ed",
      "= {\\",
      "on al",
      "F ran",
      "inter est",
      "Au str",
      "P M",
      "h im",
      "f ood",
      "So vi",
      "3 9",
      "og en",
      "ra w",
      "anal y",
      "scienti fic",
      "ne tic",
      "form ed",
      "other s",
      "Ac cording",
      "wor ks",
      "netw ork",
      "L ist",
      "ele ment",
      "D av",
      "G re",
      "h at",
      "e th",
      ".. .",
      "ab ly",
      "ar g",
      "s cho",
      "lear ning",
      "form ul",
      "concer n",
      "sph ere",
      "m ing",
      "WIKI_ ARTICLE_",
      "clim ate",
      "nec ess",
      "Ex ternal",
      "posi tive",
      "c us",
      "requ ire",
      "pop ular",
      "Indi a",
      "ci vil",
      "o ts",
      "Y ork",
      "wi de",
      "pho sph",
      "3 5",
      "ec ially",
      "G l",
      "ell ig",
      "end s",
      "am oun",
      "Out line",
      "om orph",
      "esp ecially",
      "ac es",
      "si ze",
      "ab il",
      "su ff",
      "M al",
      "J ournal",
      "f ew",
      "Austr al",
      "l ist",
      "rel ig",
      "Com mon",
      "prob ability",
      "3 7",
      "r am",
      "ev idence",
      "in ess",
      "w he",
      "tr uc",
      "ad ap",
      "g reat",
      "ac ts",
      "tw are",
      "re ach",
      "at s",
      "mo di",
      "i o",
      "200 8",
      "of tware",
      "em ploy",
      "comp uter",
      "S c",
      "vol ution",
      "di ag",
      "mus ic",
      "pat tern",
      "S ince",
      "es ti",
      "curr ent",
      "ach ine",
      "equ ival",
      "So ci",
      "st atis",
      "iz ations",
      "ob serv",
      "rec ord",
      "gr ad",
      "c k",
      "ac coun",
      "pl as",
      "s aid",
      "ob tain",
      "p rec",
      "th ing",
      "h eld",
      "de g",
      "i ans",
      "ti g",
      "Tr ans",
      "B ar",
      "202 1",
      "Aug ust",
      "A m",
      "J une",
      "con duc",
      "un iver",
      "Gen eral",
      "se x",
      "c ra",
      "av es",
      "n ature",
      "por ts",
      "F urther",
      "201 0",
      "bas is",
      "r on",
      "z ed",
      "m u",
      "ev ents",
      "cult ural",
      "Un ion",
      "minis tr",
      "sequ ences",
      "bre ak",
      "201 2",
      "Sovi et",
      "re ed",
      "F am",
      "b ility",
      "W ith",
      "pro posed",
      "avail able",
      "incre asing",
      "V ol",
      "ge t",
      "hy po",
      "tic ally",
      "inter pre",
      "engine ering",
      "reg ard",
      "b ol",
      "He alth",
      "mom ent",
      "symme try",
      "h ip",
      "200 9",
      "individual s",
      "C ulture",
      "mil itary",
      "Wh ile",
      ". :",
      "3 4",
      "centr al",
      "treat ment",
      "201 5",
      "an a",
      "pre vi",
      "transcri ption",
      "reg ions",
      "Al l",
      "s ource",
      "d ri",
      "cl assi",
      "dis order",
      "b and",
      "201 1",
      "cir c",
      "z ero",
      "thro p",
      "molec ular",
      "Can ada",
      "im plement",
      "M arch",
      "br anch",
      "includ es",
      "S te",
      "In stit",
      "a ther",
      "phen omen",
      "w omen",
      "p ain",
      "Fr ance",
      "Af ter",
      "cal cul",
      "comple te",
      "P ubl",
      "r un",
      "yn omial",
      "P a",
      "M us",
      "as p",
      "be t",
      "resp ond",
      "pol y",
      "cy cle",
      "de v",
      "transl ation",
      "of ficial",
      "Se pt",
      "struct ures",
      "molec ules",
      "includ ed",
      "S u",
      "s he",
      "low er",
      "De velop",
      "its elf",
      "c up",
      "intro duced",
      "C al",
      "ac cess",
      "di ed",
      "tr ieved",
      "ne uro",
      "ar ies",
      "olog ies",
      "200 7",
      "mark et",
      "ci ties",
      "nor mal",
      "some times",
      "Sp ec",
      "ci ent",
      "Americ a",
      "b acter",
      "to ge",
      "bl ood",
      "So cial",
      "mem br",
      "ne t",
      "w in",
      "it or",
      "pro duce",
      "commun ity",
      "201 3",
      "3 6",
      "Sept ember",
      "b ly",
      "appe ar",
      "sid ent",
      "toge ther",
      "H ar",
      "ris k",
      "200 6",
      "Com p",
      "201 4",
      "mathema tical",
      "e as",
      "g am",
      "ap er",
      "pol ynomial",
      "t ual",
      "k in",
      "ti ce",
      "pl ant",
      "g ed",
      "201 8",
      "sign al",
      "k es",
      "Re public",
      "st re",
      "c ause",
      "om ic",
      "de mon",
      "form al",
      "m ig",
      "ap plied",
      "C am",
      "if ied",
      "ide a",
      "9 0",
      "r m",
      "M any",
      "201 6",
      "dom in",
      "requ ired",
      "Fam ily",
      "po se",
      "ab ol",
      "par ame",
      "bo dies",
      "20 19",
      "inter actions",
      "ed eral",
      "ag ing",
      "um p",
      "Ger many",
      "b us",
      "S ystem",
      "ta x",
      "ch ro",
      "c il",
      "N o",
      "invol ved",
      "manag ement",
      "of fic",
      "ul ations",
      "Jul y",
      "201 7",
      "7 0",
      "deg ree",
      "ro p",
      "g as",
      "an ced",
      "indu stry",
      "trans fer",
      "ins tit",
      "child ren",
      "i ent",
      "bro ad",
      "inter action",
      "equ al",
      "r or",
      "d ot",
      "sol ution",
      "an ish",
      "tra de",
      "l ate",
      "direct ly",
      "qu anti",
      "at in",
      "Ch ris",
      "rele ased",
      "ph ot",
      "Re trieved",
      "in dependent",
      "ci es",
      "experim ent",
      "qu e",
      "dist inc",
      "allow s",
      "end ing",
      "t able",
      "um ents",
      "r ain",
      "cr acy",
      "en h",
      "educ ation",
      "can not",
      "Jan uary",
      "wh ose",
      "dens ity",
      "tic es",
      "sec tion",
      "lead ing",
      "Afric a",
      "transp ort",
      "E con",
      "ha ving",
      "v o",
      "str ateg",
      "g ames",
      "od es",
      "typ ically",
      "ellig ence",
      "Oc to",
      "ex ten",
      "sug gest",
      "bl ack",
      "m ber",
      "} +",
      "fr ame",
      "Octo ber",
      "ig en",
      "iz ing",
      "ti an",
      "b all",
      "l or",
      "on t",
      "er a",
      "pr ac",
      "f all",
      "un c",
      "con centr",
      "en ced",
      "ag ed",
      "par ts",
      "demon str",
      "r al",
      "Phys ics",
      "esti val",
      ", }",
      "o ks",
      "d le",
      "plac ed",
      "Ch ar",
      "202 3",
      "ore d",
      "col lec",
      "con f",
      "col on",
      "defin ition",
      "F il",
      "lik ely",
      "ati ves",
      "200 5",
      "particular ly",
      "C or",
      "the ories",
      "St ate",
      "commun ic",
      "A pr",
      "clos ed",
      "ut ure",
      "ver sion",
      "R el",
      "for ces",
      "re action",
      "202 2",
      "ph ilos",
      "vi ol",
      "B ib",
      "al le",
      "tr i",
      "serv ices",
      "though t",
      "p to",
      "ob jects",
      "b ene",
      "l ast",
      "immun e",
      "imp act",
      "N ove",
      "P o",
      "partic ip",
      "D uring",
      "l it",
      "ful ly",
      "ie f",
      "E d",
      "H er",
      "Al though",
      "Apr il",
      "Nove mber",
      "u ation",
      "W estern",
      "le x",
      "ce an",
      "comp an",
      "co ordin",
      "H am",
      "al ign",
      "F in",
      "ang le",
      "br ain",
      "techniqu es",
      "li ving",
      "buil ding",
      "20 00",
      "b al",
      "in a",
      "ew able",
      "bin ding",
      "S D",
      "te am",
      "En viron",
      "ecti vely",
      "neg ative",
      "ch ann",
      "can cer",
      "a ver",
      "c at",
      "pro of",
      "dynam ic",
      "re str",
      "cri tical",
      "lar gest",
      "ar r",
      "u le",
      "l ation",
      "s qu",
      "s oftware",
      "T echnology",
      "g ood",
      "princi ple",
      "S ol",
      "alth ough",
      "cons um",
      "Dav id",
      "mathema tics",
      "cre ate",
      "Dec ember",
      "report ed",
      "4 8",
      "tra ditional",
      "D es",
      "al tern",
      "pr acti",
      "ob served",
      "Re g",
      "dom ain",
      "dec re",
      "ie ve",
      "rand om",
      "ad es",
      "hal f",
      "G ree",
      "whe ther",
      "man if",
      "cor por",
      "M ore",
      "B el",
      "h ome",
      "applic ations",
      "U K",
      "ac id",
      "gener ation",
      "influ ence",
      "4 5",
      "ar m",
      "bel ow",
      "M od",
      "res ources",
      "op hy",
      "hum ans",
      "R evolution",
      "ar k",
      "R oman",
      "ic ine",
      "C A",
      "ful l",
      "dis ci",
      "g an",
      "plic ation",
      "sub st",
      "C R",
      "fun dam",
      "w ind",
      "univer se",
      "ti z",
      "sub ject",
      "un it",
      "Pa ul",
      "diff ic",
      "s ent",
      "ac cording",
      "co st",
      "produc ts",
      "cons tit",
      "ist ance",
      "min im",
      "we ak",
      "D el",
      "b es",
      "re view",
      "p si",
      "membr ane",
      "sim ple",
      "i x",
      "A b",
      "por tion",
      "f ail",
      "ar gu",
      "it ation",
      "E ast",
      "f it",
      "d ou",
      "p en",
      "soci ety",
      "pri v",
      "spe ak",
      "fil ms",
      "am a",
      "at a",
      "il ib",
      "- \\",
      "sol ar",
      "continu ous",
      ") =",
      "W ik",
      "fi ve",
      "sc op",
      "col l",
      "categ ory",
      "L ond",
      "i or",
      "disci pl",
      "ac ks",
      "tak en",
      "know ledge",
      "l oss",
      "au di",
      "prim ary",
      "dist ance",
      "er y",
      "provid ed",
      "impro ve",
      "The ore",
      "C ity",
      "establ ish",
      "19 0",
      "med ical",
      "sp aces",
      "cor rec",
      "pro g",
      "os ystem",
      "ult ural",
      "ch all",
      "contain s",
      "h ab",
      "there fore",
      "comp e",
      "targe t",
      "| \\",
      "Lond on",
      "lim ited",
      "bo ard",
      "i tive",
      "to w",
      "ves tig",
      "recept or",
      "A sia",
      "we b",
      "4 7",
      "function al",
      "ear li",
      "S w",
      "E l",
      "car bon",
      "i eld",
      "An d",
      "enti re",
      "200 4",
      "Instit ute",
      "ilib ri",
      "ec osystem",
      "h ard",
      "issu es",
      "th s",
      "th ird",
      "or ks",
      "re t",
      "ch es",
      "rel ations",
      "ther mo",
      "brid ge",
      "Ph il",
      "sit es",
      "D A",
      "re mo",
      "u el",
      "v ation",
      "ad ministr",
      "lin es",
      "der iv",
      "b ig",
      "k a",
      "iqu e",
      "d raw",
      "differ enti",
      "Gree k",
      "pl ies",
      "con dition",
      "form er",
      "b um",
      "} =",
      "de tail",
      "M ich",
      "W est",
      "e igen",
      "m ight",
      "dise ases",
      "us h",
      "ut es",
      "inste ad",
      "pro ject",
      "plan e",
      "tran sition",
      "pres sion",
      "ru le",
      "amoun t",
      "T ra",
      "T ur",
      "mean ing",
      "L et",
      "in ation",
      "ap y",
      "car ri",
      "V i",
      "k ill",
      "s cri",
      "st ress",
      "o le",
      "oc he",
      "3 1",
      "s atis",
      "up on",
      "ber g",
      "in al",
      "pre vent",
      "F irst",
      "part ment",
      "ect ors",
      "De mo",
      "Fe br",
      "nuc lear",
      "si x",
      "Febr uary",
      "t ex",
      "material s",
      "King dom",
      "S T",
      "en se",
      "Th us",
      "in hib",
      "com par",
      "B lack",
      "dis cus",
      "lar ger",
      "Soci ety",
      "read ing",
      "G overn",
      "v ar",
      "en cies",
      "num er",
      "4 6",
      "C he",
      "h ost",
      "di g",
      "ace ae",
      "man n",
      "200 3",
      "cy to",
      "202 4",
      "sen se",
      "r ich",
      "re li",
      "ib le",
      "geome try",
      "wor ds",
      "Ar ab",
      "WIKI_SPECIALIZED_ 00",
      "I ran",
      "Sc ot",
      "The ory",
      "vari ables",
      "need ed",
      "tis su",
      "vari ety",
      "provid es",
      "fundam ental",
      "it es",
      "restr ic",
      "O ff",
      "ass um",
      "h am",
      "vi ties",
      "do ts",
      "i res",
      "ef for",
      "ro up",
      "through out",
      "plan ts",
      "ilibri um",
      "n utr",
      "bil lion",
      "M ac",
      "h ood",
      "Afric an",
      "ist an",
      "differ ential",
      "s ources",
      "understand ing",
      "compon ents",
      "r ates",
      "he av",
      "C ons",
      "w ood",
      "al ter",
      "ch ain",
      "f uture",
      "An other",
      "ca used",
      "in k",
      "sec urity",
      "oper ation",
      "st er",
      "Cont in",
      "econom y",
      "3 3",
      "ris e",
      "Bi ology",
      "anim als",
      "exam ples",
      "char ge",
      "Common s",
      "occur s",
      "F rom",
      "c as",
      "com es",
      "F er",
      "gre ater",
      "construc tion",
      "b est",
      "gen ome",
      "fi xed",
      "Wil liam",
      "m as",
      "en cing",
      "Indi an",
      "proper ty",
      "cont ext",
      "cap ital",
      "ce ed",
      "Bi o",
      "v in",
      "un ch",
      "ann oun",
      "k ind",
      "l ength",
      "E lec",
      "S N",
      "a iss",
      "ne utr",
      "stud ents",
      "su st",
      "au ge",
      "pr ison",
      "reed om",
      "amp ion",
      "add ress",
      "x _",
      "sh if",
      "c tic",
      "se lec",
      "Or gan",
      "bor n",
      "} ,",
      "T w",
      "it ect",
      "comp ared",
      "Develop ment",
      "cap ac",
      "vol ume",
      "law s",
      "applic ation",
      "aiss ance",
      "fe atures",
      "C y",
      "he at",
      "refer red",
      "5 5",
      "re pe",
      "pos si",
      "represent ation",
      "Publ ic",
      "H ist",
      "pri or",
      "ar row",
      "ill s",
      "exp and",
      "top ological",
      "equival ent",
      "ari an",
      "practi ce",
      "ob ject",
      "develop ing",
      "cou pl",
      "o ot",
      "M ost",
      "in vestig",
      "act ing",
      "respon ding",
      "G o",
      "al ways",
      "ac cur",
      "work ing",
      "necess ary",
      "P D",
      "el ves",
      "gra vity",
      "pati ents",
      "op tim",
      "Rus sian",
      "b os",
      "ing er",
      "Pol i",
      "A D",
      "cl in",
      "ne ur",
      "expres sed",
      "prof es",
      "methyl ation",
      "S tr",
      "olog ists",
      "cri tic",
      "200 1",
      "oc y",
      "trans form",
      ". )",
      "organ ization",
      "read y",
      "chro mo",
      "l at",
      "leg al",
      "wor d",
      "common ly",
      "co effici",
      "em br",
      "Th om",
      "as tic",
      "med ia",
      "w ise",
      "histor ical",
      "fore ign",
      "t ree",
      "ad op",
      "result ing",
      "mem ber",
      "l ay",
      "st age",
      "Mathema tics",
      "moment um",
      "8 8",
      "o ti",
      "dec ision",
      "high ly",
      "an k",
      "it ing",
      "den ot",
      "to wards",
      "elec tro",
      "identi fy",
      "in ed",
      "al most",
      "is ter",
      "spec if",
      "netw orks",
      "L ab",
      "oc cup",
      "electr ons",
      "syn thesis",
      "p an",
      "mig r",
      "em is",
      "a el",
      "s il",
      "bet ter",
      "perform ance",
      "ma xim",
      "der ived",
      "research ers",
      "ec tions",
      "ex act",
      "math rm",
      "exist ence",
      "it ch",
      "operator name",
      "at ur",
      "se lection",
      "eff ective",
      "9 9",
      "re ason",
      "is tics",
      "identi fied",
      "b ase",
      "al bum",
      "bas ic",
      "show s",
      "bus iness",
      "ass ess",
      "ic o",
      "is ation",
      "att le",
      "E m",
      "re duc",
      "st ated",
      "vers ity",
      "3 2",
      "w a",
      "tr ue",
      "ci tiz",
      "mechan ism",
      "im edia",
      "algorith m",
      "Wik imedia",
      "b ir",
      "te le",
      "compan ies",
      "an throp",
      "per s",
      "initi al",
      "sym bol",
      "C ong",
      "St u",
      "pop ulations",
      "b order",
      "f ish",
      "n ic",
      "in str",
      "be ta",
      "top ology",
      "b da",
      "tow n",
      "ex c",
      "stre am",
      "ro b",
      "ro ad",
      "M il",
      "is ol",
      "ad ditional",
      "s tim",
      "inf ty",
      "ent er",
      "nam ed",
      "di versity",
      "P ri",
      "an i",
      "ard s",
      "cor respond",
      "aver age",
      "g ive",
      "on to",
      "follow s",
      "equ ilibrium",
      "re duce",
      "to ols",
      "s q",
      "program s",
      "ou l",
      "cr imin",
      "E mp",
      "M c",
      "id es",
      "7 5",
      "cra tic",
      "c ast",
      "H ol",
      "acti vities",
      "B rit",
      "o to",
      "comp any",
      "sol utions",
      "n a",
      "B ec",
      "graph s",
      "Coun cil",
      "cre te",
      "reg ular",
      "Austral ia",
      "L aw",
      "out side",
      "V al",
      "c lear",
      "coun ter",
      "plic ations",
      "gen ce",
      "aff ect",
      "Com mun",
      "mit te",
      "z ation",
      "an cient",
      "200 2",
      "Ren aissance",
      "r t",
      "and s",
      "il i",
      "Su per",
      "comp os",
      "col or",
      "experim ents",
      "u fact",
      "rec ent",
      "ul ated",
      "wi del",
      "fe ature",
      "widel y",
      "indu strial",
      "o res",
      "the ms",
      "ex tr",
      "c ross",
      "l as",
      "to ok",
      "giv es",
      "m orph",
      "gener ated",
      "scho ol",
      "F ore",
      "d ed",
      "gam ma",
      "R ich",
      "a us",
      "in de",
      "pres sure",
      "y st",
      "gra vit",
      "Ital ian",
      "thems elves",
      "of fer",
      "ur ban",
      "int elligence",
      "As soci",
      "row n",
      "hypo thesis",
      "ou thern",
      "cor responding",
      "r up",
      "fin al",
      "c in",
      "et ary",
      "col lection",
      "p aper",
      "ot echnology",
      "ph y",
      "n os",
      "lang le",
      "formul a",
      "fin d",
      "K ore",
      "WIKI_ARTICLE_ 00",
      "J ames",
      "sur vi",
      "ev al",
      "R iver",
      "p ast",
      "ti li",
      "ren ewable",
      "enti ally",
      "perform ed",
      "inste in",
      "meas ures",
      "sign ed",
      "allow ed",
      "T er",
      "s us",
      "ro ugh",
      "vari ant",
      "rap id",
      "Rus sia",
      "4 4",
      "gh t",
      "experi ence",
      "ex ists",
      "bl ock",
      "un ique",
      "ome ga",
      "exp ected",
      "discover ed",
      "ain able",
      "Ex am",
      "E g",
      "S up",
      "p ed",
      "G reat",
      "M id",
      "com mer",
      "re ality",
      "ve y",
      "is es",
      "me et",
      "Arch ived",
      "ti vity",
      "lec ular",
      "direc tion",
      "re turn",
      "PM ID",
      "c ame",
      "s w",
      "il ton",
      "tr aining",
      "fac il",
      "sch ol",
      "op s",
      "P A",
      "n el",
      "s ay",
      "Mar k",
      "mut ation",
      "frequ ency",
      "Econ omic",
      "en sive",
      "6 5",
      "\\ \\",
      "Ro bert",
      "ro y",
      "ell ing",
      "conn ected",
      "E instein",
      "f av",
      "t as",
      "il on",
      "ag re",
      "S ub",
      "inv est",
      "in fl",
      "to o",
      "loc ated",
      "S C",
      "re duced",
      "An ti",
      "met abol",
      "capac ity",
      "ter rit",
      "ten tion",
      "9 5",
      "p on",
      "design ed",
      "ref lec",
      "cl ose",
      "inst ance",
      "j ective",
      "n ation",
      "depend ence",
      "st ep",
      "em ents",
      "ne y",
      "ps ilon",
      "relig ious",
      "c amp",
      "d one",
      "C ur",
      "pl it",
      "con serv",
      "ex cl",
      "mechan isms",
      "H is",
      "con cl",
      "der s",
      "artic le",
      "e y",
      "comp act",
      "ext re",
      "show ed",
      "combin ation",
      "oun tain",
      "rel ative",
      "th reat",
      "Ham ilton",
      "ref ers",
      "manif old",
      "f em",
      "invol ves",
      "atom s",
      "distinc t",
      "suff ici",
      "ag ric",
      "ers hip",
      "pres ence",
      "un its",
      "Sp anish",
      "Emp ire",
      "ma kes",
      "g auge",
      "em ph",
      "me tric",
      "vis ual",
      "continu ed",
      "requ ires",
      "foc us",
      "theore tical",
      "M or",
      "sp ir",
      "follow ed",
      "w aves",
      "mag netic",
      "m es",
      "k y",
      "be y",
      "Cam bridge",
      "or ation",
      "Hist or",
      "determin ed",
      "m achine",
      "writ ing",
      "spe ed",
      "rece ived",
      "i j",
      "de b",
      "199 9",
      "dat ab",
      "priv ate",
      "B en",
      "G ra",
      "S A",
      "buil t",
      "Mathema tical",
      "et c",
      "sig ma",
      "organ izations",
      "descri be",
      "A ir",
      "ade mic",
      "compe ti",
      "the atre",
      "im age",
      "em erg",
      "ul l",
      "our s",
      "announ ced",
      "res ol",
      "oun g",
      "sub sequ",
      "Mal ay",
      "grap hy",
      "al ready",
      "vari able",
      "exp an",
      "9 8",
      "s ong",
      "Environ mental",
      "sq rt",
      "fac es",
      "T im",
      "n ext",
      "ampion ship",
      "r ad",
      "st able",
      "v an",
      "hy per",
      "no vel",
      "ro und",
      "differ ence",
      "ific ation",
      "rom ag",
      "pattern s",
      "ther apy",
      "inter nal",
      "ag g",
      "lo ok",
      "ca uses",
      "begin ning",
      "U N",
      "a j",
      "pol l",
      "ep ig",
      ") ;",
      "v ic",
      "techn ologies",
      "who le",
      "Is lam",
      "arti ficial",
      "B ur",
      "b ing",
      "stu died",
      "Pre sident",
      "H y",
      "qu ar",
      "sub set",
      "small er",
      "Cl ass",
      "demo cracy",
      "pl ann",
      "use ful",
      "sol id",
      "mem ory",
      "radi ation",
      "Cent ral",
      "z er",
      "ound s",
      "6 6",
      "re ma",
      "rele ase",
      "at mo",
      "fol k",
      "ex ec",
      "ting u",
      "algorith ms",
      "M ic",
      "pos es",
      "c ore",
      "g al",
      "ain t",
      "mitte e",
      "Gre en",
      "19 th",
      "reg ulation",
      "scienti sts",
      "abil ities",
      "Spec ial",
      "sp her",
      "accoun t",
      "rema ins",
      "R ights",
      "v ot",
      "arch itect",
      "ex hib",
      "cre ation",
      "vide o",
      "D r",
      "i tions",
      "j ournal",
      "t u",
      "al y",
      "man ufact",
      "chall eng",
      "F ol",
      "r ary",
      "el er",
      "om s",
      "un ivers",
      "ques tion",
      "ph yl",
      "fin an",
      "s aw",
      "dis tingu",
      "Ital y",
      "att ach",
      "s ector",
      "var phi",
      "H igh",
      "ur ch",
      "arch ae",
      "De partment",
      "sc ul",
      "d ate",
      "p al",
      "fin ding",
      "emph as",
      "( {\\",
      "t end",
      "Bib code",
      "s cre",
      "or ge",
      "term ine",
      "um b",
      "St and",
      "bec omes",
      "r ati",
      "t au",
      "em pt",
      "cont ent",
      "o il",
      "de termine",
      "ne igh",
      "O x",
      "obtain ed",
      "o sition",
      "re actions",
      "str ing",
      "port al",
      "fore st",
      "in corpor",
      "de al",
      "P ort",
      "S pr",
      "Eng land",
      "previ ous",
      "B ut",
      "R i",
      "li ve",
      "O ver",
      "st or",
      "lead s",
      "anim al",
      "contr ast",
      "lam bda",
      "plic it",
      "tric t",
      "L ang",
      "to ur",
      "ul ate",
      "identi ty",
      "measure ment",
      "dimen sion",
      "tra vel",
      "par ty",
      "compon ent",
      "Mo lecular",
      "8 5",
      "B l",
      "B as",
      "di al",
      "ag o",
      "respon sible",
      "S ur",
      "e ties",
      "elec tion",
      "i to",
      "refer ence",
      "per cent",
      "id en",
      "prim arily",
      "V er",
      "en ed",
      "sp read",
      "long er",
      "approach es",
      "Contin ental",
      ". ).",
      "B al",
      "qu al",
      "pres er",
      "M y",
      "f ederal",
      "experim ental",
      "bacter ia",
      "6 7",
      "algebra ic",
      "ec e",
      "la unch",
      "oper ations",
      "integr al",
      "s in",
      "re pres",
      "ce ption",
      "id ae",
      "te en",
      "syn the",
      "tak ing",
      "cour se",
      "Brit ain",
      "C ell",
      "dam age",
      "cell ular",
      "represent ed",
      "embr y",
      "S 2",
      "V ir",
      "as sem",
      "av oid",
      "v acc",
      "on line",
      "cho ice",
      "in finite",
      "ap ply",
      "oper ators",
      "anal og",
      "adv ant",
      "direc ted",
      "cos m",
      "diffic ult",
      "dition ally",
      "polic ies",
      "sp ok",
      "truc ture",
      "is ing",
      "de mand",
      "incre ases",
      "sim pl",
      "c dot",
      "199 8",
      "prim e",
      "evolution ary",
      "Mo dern",
      "Govern ment",
      "s a",
      "et a",
      "C our",
      "e an",
      "u ts",
      "Fil m",
      "r ules",
      "pain ting",
      "se a",
      "mo ti",
      "En ergy",
      "c ard",
      "s ens",
      ") ^{",
      "Chris tian",
      "the ta",
      "to m",
      "set ting",
      "R ob",
      "s l",
      "for ma",
      "resp ect",
      "scul pt",
      "Eng ine",
      "a ign",
      "ly ing",
      "S ing",
      "por ary",
      "anti gen",
      "resp ectively",
      "dimen sions",
      "on y",
      "Un der",
      "Can adi",
      "expan sion",
      "ur ation",
      "con fl",
      "Japan ese",
      "mi x",
      "n it",
      "p ay",
      "qu ad",
      "elec t",
      "m one",
      "9 3",
      "D ir",
      "mit ted",
      "Mod el",
      "li ber",
      "y et",
      "es tic",
      "mechan ical",
      "re w",
      "app ing",
      "targe ts",
      "x i",
      "am ino",
      "lin k",
      "squ are",
      "dig ital",
      "er t",
      "atom ic",
      "comput ational",
      "cep ts",
      "Cong ress",
      "f reedom",
      "m el",
      "Par is",
      "align ed",
      "a ut",
      "h ouse",
      "ac qu",
      "aw ay",
      "dou ble",
      "ach ieve",
      "Pl an",
      "disorder s",
      "d on",
      "or bit",
      "it able",
      "iz es",
      "stat us",
      "pro portion",
      "asp ects",
      "l ic",
      "gen cy",
      "administr ation",
      "t ors",
      "ri a",
      "serv ice",
      "Ge orge",
      "ograph ic",
      "Associ ation",
      "Bec ause",
      "liam ent",
      "em a",
      "20 th",
      "log ic",
      "en ing",
      "} ^{\\",
      "2 n",
      "O ly",
      "Ar ctic",
      "electric ity",
      "measure d",
      "day s",
      "S am",
      "b ond",
      "at ch",
      "commun ities",
      "tak es",
      "B ay",
      "w on",
      "min or",
      "statis tical",
      "Phil ip",
      "in ary",
      "leg is",
      "} -",
      "vir tual",
      "doc ument",
      "t el",
      "z ing",
      "ish ing",
      "u x",
      "organ ism",
      "major ity",
      "L atin",
      "play ed",
      "fig ure",
      "add ed",
      "pr int",
      "Com mission",
      "instit utions",
      "es is",
      "199 7",
      "d est",
      "en ough",
      "lin ked",
      "relati vely",
      "P R",
      "ap s",
      "Re view",
      "pro p",
      "pro jects",
      "ex change",
      "success ful",
      "differ ences",
      "A M",
      "in tr",
      "al ed",
      "Sec ond",
      "cons ists",
      "bo x",
      "att emp",
      "ag ue",
      "os c",
      "invol ve",
      "need s",
      "i at",
      "pol ar",
      "we ight",
      "on ce",
      "ro ot",
      "correc t",
      "approxim ately",
      "7 7",
      "9 6",
      "The atre",
      "wh ite",
      "ess ential",
      "sug ges",
      "ne ver",
      "IS SN",
      "K ar",
      "e k",
      "n ed",
      "ic a",
      "con vention",
      "G al",
      "phenomen a",
      "There fore",
      "recept ors",
      "spok en",
      "SD G",
      "S un",
      "a _",
      "spec tr",
      "Thom as",
      "att empt",
      "L ou",
      "altern ative",
      "re ve",
      "sk i",
      "estim ated",
      "clin ical",
      "res sion",
      "loc ation",
      "phot on",
      "activ ation",
      "E volution",
      "di a",
      "tur b",
      "B ra",
      "O b",
      "com m",
      "cent er",
      "a ke",
      "sim ply",
      "S m",
      "li p",
      "sen si",
      "phosph ory",
      "S uch",
      "v ary",
      "Th en",
      "an o",
      "Cent er",
      "cod ing",
      "organ ic",
      "found ed",
      "concentr ation",
      ". [",
      "un i",
      "C ID",
      "d ol",
      "to x",
      "Oly mp",
      "s al",
      "ox y",
      "o cean",
      "ser ve",
      "dic tion",
      "enz y",
      "commer cial",
      "v are",
      "di vision",
      "tes ts",
      "lit tle",
      "} )}",
      "an tic",
      "play s",
      "sh are",
      "ide as",
      "h u",
      "k i",
      "ma tic",
      "Di ff",
      "def ine",
      "h app",
      "ri er",
      "E r",
      "b ind",
      "il ar",
      "con str",
      "res istance",
      "med icine",
      "person al",
      "Rich ard",
      "ab sor",
      "cr yst",
      "Par k",
      "I ts",
      "P al",
      "o ch",
      "del ta",
      "r ay",
      "} ,\\",
      "exist ing",
      "star ted",
      "A lex",
      "N ations",
      "trans formation",
      "parame ters",
      "Mich ael",
      "j ud",
      "+ \\",
      "M ex",
      "c ut",
      "n ia",
      "go al",
      "c el",
      "in fr",
      "ugh t",
      "scri pt",
      "S he",
      "om ics",
      "symme tric",
      "epig enetic",
      "onom y",
      "P T",
      "ro te",
      "act ed",
      "ari th",
      "work ers",
      "bo oks",
      "c ogn",
      "G roup",
      "z a",
      "Di rec",
      "gravit ational",
      "S2 CID",
      "v ant",
      "val id",
      "ing ton",
      "Mid dle",
      "4 2",
      "as tr",
      "P op",
      "T op",
      "specif ically",
      "chang ed",
      "am in",
      "oc al",
      "Char les",
      "att ack",
      "m ac",
      "ed s",
      "lar g",
      "id ent",
      "In d",
      "comput ing",
      "Canadi an",
      "vare psilon",
      "tr ial",
      "sp ati",
      "Com put",
      "grow ing",
      "test ing",
      "ec k",
      "Tw o",
      "o th",
      "class es",
      "allow ing",
      "issu e",
      "em er",
      "op pos",
      "Pe ter",
      "sam ple",
      "em ann",
      "j ection",
      "k ine",
      "Sim ilar",
      "w rote",
      "gener ate",
      "de fic",
      "A ust",
      "li qu",
      "sc he",
      "ough t",
      "radi o",
      "ed ge",
      "el ine",
      "earli er",
      "N on",
      "d ance",
      "finan cial",
      "suggest ed",
      "E ach",
      "con ject",
      "medi ate",
      "unc tion",
      "L if",
      "h ic",
      "play er",
      "comp osition",
      "199 4",
      "mi to",
      "relati vity",
      "6 8",
      "y ing",
      "H en",
      "H ouse",
      "mut ations",
      "I T",
      "w r",
      "}} (",
      "ext ended",
      "main ly",
      "4 9",
      "p ul",
      "hydro gen",
      "or al",
      "or ient",
      "se em",
      "pro to",
      "Hamilton ian",
      "C iv",
      "or b",
      "og ene",
      "Ar t",
      "techniqu e",
      "M art",
      "ed ition",
      "bel ieved",
      "g ent",
      "fam il",
      "exp on",
      "separ ate",
      "I V",
      "r ational",
      "y pe",
      "re as",
      "per f",
      "0 5",
      "ac u",
      "olog ist",
      "202 5",
      "en ess",
      "vari ation",
      "Gl obal",
      "previ ously",
      "cre ating",
      "g el",
      "ar rang",
      "197 0s",
      "communic ation",
      "F estival",
      "not e",
      "tissu e",
      "Ox ford",
      "M achine",
      "Ar my",
      "path way",
      "WIKI_SPECIALIZED_ 000",
      "WIKI_ARTICLE_ 000",
      "thermo dynamic",
      "Exam ples",
      "E p",
      "aff ected",
      "significant ly",
      "to ol",
      "af ety",
      "p tions",
      "st art",
      "posi tions",
      "bound ary",
      "A C",
      "t un",
      "struct ural",
      "tr ack",
      "199 5",
      "M et",
      "g ing",
      "u tive",
      "act ors",
      "scho ols",
      "prog ress",
      "ell ular",
      "A P",
      "as tern",
      "il bert",
      "Ser v",
      "elect romag",
      "\" )",
      "hold s",
      "alle l",
      "0 1",
      "ar bit",
      "migr ation",
      ", \"",
      "pro ced",
      "con cepts",
      "col labor",
      "frame work",
      "P ost",
      "W ash",
      "w est",
      "bi om",
      "re pair",
      "^{ -",
      "im ages",
      "AT P",
      "diag nos",
      "u str",
      "u tili",
      "in forma",
      "dom estic",
      "Par ty",
      "ho le",
      "argu ed",
      "h ind",
      "r ul",
      "so il",
      "contain ing",
      "g old",
      "s ound",
      "st ood",
      "curr ently",
      "effor ts",
      "S al",
      "over all",
      "cont act",
      "sym pto",
      "fig ures",
      "PD F",
      "larg ely",
      "t z",
      "}} {",
      "val u",
      "clos ely",
      "Stu dies",
      "po or",
      "Bo th",
      "o e",
      "ac et",
      "li es",
      "Not es",
      "jo int",
      "y ou",
      "molec ule",
      "combin ed",
      "chann el",
      "5 00",
      "s low",
      "es ts",
      "process ing",
      "W ay",
      "co ast",
      "det ect",
      "g ers",
      "is ions",
      "fer m",
      "appro pri",
      "I r",
      "f a",
      "most ly",
      "Poli tical",
      "z o",
      "sh ape",
      "prot ect",
      "discover y",
      "camp aign",
      "g in",
      "te ach",
      "use um",
      "S um",
      "le q",
      "se ason",
      "pro ved",
      "present ed",
      "f oot",
      "at tr",
      "divid ed",
      "poly mer",
      "L and",
      "not ation",
      "T echn",
      "u it",
      "relationship s",
      "classi fication",
      "C ri",
      "b s",
      "c ust",
      "ed ing",
      "me tic",
      "high est",
      "import ance",
      "ly m",
      "prot ection",
      "coeffici ents",
      "l ore",
      "199 1",
      "n u",
      "eval u",
      "re duction",
      "princi ples",
      "t um",
      "in her",
      "descri bes",
      "consist ent",
      "ati vely",
      "statis tics",
      "bey ond",
      "P at",
      "Z e",
      "lo st",
      "Nor thern",
      "artic les",
      "interpre tation",
      "G old",
      "in di",
      "ste ad",
      "p ti",
      "im plies",
      "ac ademic",
      "S cho",
      "m am",
      "ur ies",
      "origin ally",
      "n s",
      "fic tion",
      "tre es",
      "r ig",
      "re placed",
      "conject ure",
      "c am",
      "P hy",
      "f estival",
      "In du",
      "inte ger",
      "support ed",
      "claim ed",
      "E th",
      "b ri",
      "Th er",
      "rel and",
      "hab it",
      "in duced",
      "and er",
      "invol ving",
      "Ear ly",
      "philos ophy",
      "S an",
      "ac cept",
      "for ced",
      "plac es",
      "concern s",
      "Cal i",
      "nutr ition",
      "8 9",
      "cl ust",
      "om al",
      "un ding",
      "provid ing",
      "Engine ering",
      "J ose",
      "M ag",
      "phys ic",
      "R oy",
      "t ely",
      "y a",
      "op tical",
      "play ers",
      "appe ars",
      "enzy me",
      "8 7",
      "F ound",
      "to day",
      "di ver",
      "con fig",
      "bel ief",
      "pass ed",
      "anti bodies",
      "M R",
      "f ri",
      "p ure",
      "s mo",
      "expl ain",
      "event ually",
      "Ri emann",
      "B ell",
      "I reland",
      "re volution",
      "h bar",
      "ap se",
      "str and",
      "II I",
      "bro ught",
      "pur pose",
      "domin ant",
      "Lang u",
      "h i",
      "19 50",
      "ke ts",
      "co her",
      "199 6",
      "Wash ington",
      "4 3",
      "drug s",
      "E R",
      "M er",
      "st ory",
      "199 3",
      "P ow",
      "re plication",
      "ro ver",
      "un ion",
      "os en",
      "conn ection",
      "sugges ts",
      "M S",
      "f its",
      "} )",
      "car ry",
      "g ar",
      "effici ency",
      "ec ological",
      "ution al",
      "men tion",
      "integr ation",
      "standard s",
      "w all",
      "st one",
      "sh ap",
      "C a",
      "T e",
      "se ven",
      "199 0",
      "it ors",
      "dis crete",
      "region al",
      "medi um",
      "rop y",
      "numer ous",
      "on a",
      "od s",
      "Li ber",
      "citiz ens",
      "( \"",
      "B ud",
      "p y",
      "th in",
      "ar ri",
      "le ge",
      "sp or",
      "b our",
      "Del ta",
      "Civ il",
      "C old",
      "h ere",
      "nor th",
      "ex ternal",
      "b ul",
      "cl o",
      "Ch ampionship",
      "fi re",
      "cre d",
      "H a",
      "ro bo",
      "ex plicit",
      "In formation",
      "ass ist",
      "B ro",
      "pati ent",
      "l l",
      "pow ers",
      "O S",
      "det ection",
      "famil ies",
      "6 9",
      "}} {\\",
      "g ain",
      "L u",
      "g ment",
      "sp ort",
      "control led",
      "Dir ac",
      "N atural",
      "inter val",
      "18 7",
      "rele vant",
      "mon ths",
      "depend s",
      "text style",
      "Pe ople",
      "el i",
      "ant ed",
      "ag ement",
      "dev ices",
      "ag on",
      "recogn ition",
      "D en",
      "del iver",
      "tit le",
      "sci ences",
      "V R",
      "g i",
      "spec tive",
      "ym es",
      "chann els",
      "e motion",
      "er ation",
      "ax i",
      "A sian",
      "y ield",
      "gene tics",
      "web site",
      "z y",
      "ac ids",
      "fic ations",
      "appe ared",
      "recogn ized",
      "omorph ism",
      "strateg y",
      "B ol",
      "n ames",
      "o is",
      "order ed",
      "foc used",
      "Ber n",
      "Stand ard",
      "C ap",
      "E U",
      "b ot",
      "pl at",
      "ab sol",
      "mat ch",
      "move ments",
      "Lou is",
      "g ly",
      "li e",
      "sc al",
      "character ized",
      "0 7",
      "G ene",
      "s ess",
      "character istic",
      "Mus ic",
      "ex er",
      "not ed",
      "equ ip",
      "}( \\",
      "sex ual",
      "' ,",
      "at trib",
      "ac ters",
      "System s",
      "P ak",
      "S to",
      "th y",
      "ar ing",
      "my th",
      "Sci enti",
      "univers al",
      "pro mis",
      "cor relation",
      "comple ment",
      "auth ors",
      "promo te",
      "concern ed",
      "M L",
      "r ist",
      "where as",
      "Cour t",
      "Lif e",
      "0 3",
      "o tic",
      "me tal",
      "electr onic",
      "near ly",
      "demonstr ated",
      "suffici ent",
      "F re",
      "si vely",
      "sit uation",
      "al ysis",
      "co al",
      "path ways",
      "pres s",
      "Al so",
      "cycl op",
      "th ous",
      "light en",
      "S ever",
      "g s",
      "r ac",
      "v ectors",
      "is o",
      "ke ep",
      "ven tions",
      "Pro gram",
      "Me th",
      "phenomen on",
      "ab s",
      "sp er",
      "stand ing",
      "si ties",
      "res er",
      "par allel",
      "model ing",
      "Sp ain",
      "repres ents",
      "Cali for",
      "con j",
      "signal ing",
      "profes sional",
      "L ie",
      "r are",
      "qu ick",
      "sequ encing",
      "oppos ite",
      "n ations",
      "J ew",
      "en sure",
      "us er",
      "ad ox",
      "character istics",
      "consum ption",
      "spati al",
      "A ge",
      "j us",
      "in no",
      "effici ent",
      "a res",
      "ul tim",
      "gen ous",
      "F ederal",
      "in fin",
      "e ast",
      "v acu",
      "reach ed",
      "w estern",
      "re si",
      "prac tices",
      "ro t",
      "mac ro",
      "O p",
      "al i",
      "ri ver",
      "str a",
      "M i",
      "T ai",
      "under stood",
      "intro duction",
      "om in",
      "sur ro",
      "techn ical",
      "196 0s",
      "acc eler",
      "Sch r",
      "8 6",
      "Com mittee",
      "199 2",
      "back ground",
      "in side",
      "act ually",
      "shif t",
      "Kore a",
      "H ow",
      "H ilbert",
      "k en",
      "ti vely",
      "Sp ace",
      "informa tics",
      "C L",
      "G am",
      "Ar ti",
      "C S",
      "E S",
      "N an",
      "in put",
      "at tention",
      "no tion",
      "Is ra",
      "oche mistry",
      "er r",
      "be hind",
      "con dens",
      "pe ak",
      "trans mit",
      "adv anced",
      "M at",
      "mo ther",
      "char acters",
      "nor m",
      "lighten ment",
      "Califor nia",
      "E duc",
      "com b",
      "har mon",
      "bir th",
      "y oung",
      "ul f",
      "ut ch",
      "sup ply",
      "environ ments",
      "Phys ical",
      "om ing",
      "En cyclop",
      "B A",
      "r ho",
      "om b",
      "port un",
      "Americ ans",
      "1 10",
      "li f",
      "N ature",
      "f ir",
      "rec over",
      "produc ing",
      "comple tely",
      "descri ption",
      "emis sions",
      "c and",
      "l atter",
      "s plit",
      "ding er",
      "l ig",
      "s outh",
      "as tructure",
      "ine quality",
      "lab el",
      "S y",
      "ve hic",
      "fore sts",
      "B or",
      "p ack",
      "dis trict",
      "compos ed",
      "mone y",
      "liqu id",
      "5 7",
      "C lim",
      "} =\\",
      "ow s",
      "ud ed",
      "adop ted",
      "an c",
      "de ad",
      "ex po",
      "Th at",
      "br ing",
      "Ar ts",
      "star ting",
      "conduc ted",
      "f u",
      "oph ys",
      "or th",
      "In tro",
      "out put",
      "pol ice",
      "categ ories",
      "Austral ian",
      "exten sion",
      "inde x",
      "Pak istan",
      "b ud",
      "ti sm",
      "was te",
      "lat tice",
      "phy si",
      "ling u",
      "m ir",
      "ro ots",
      "ear th",
      "conf ir",
      "maxim um",
      "atmo sphere",
      "f ill",
      "w an",
      "to sis",
      "de ep",
      "fy ing",
      "enz ymes",
      "at al",
      "influ enced",
      "res ource",
      "ext inc",
      "bal ance",
      ") =\\",
      "n es",
      "z es",
      "ex plan",
      "stat ement",
      "k m",
      "Organ ization",
      "Schr dinger",
      "depend ing",
      "198 9",
      "E c",
      "pair s",
      "Mex ico",
      "v a",
      "y pt",
      "lo ad",
      "und red",
      "ane ous",
      "D esp",
      "s _",
      "el imin",
      "remain ed",
      "5 3",
      "p a",
      "en cour",
      "id den",
      "Further more",
      "Spr inger",
      "surro unding",
      "0 4",
      "E astern",
      "w al",
      "sc en",
      "Sol ar",
      "datab ase",
      "\\ {",
      "av ing",
      "sol ved",
      "ide al",
      "maint ain",
      "0 8",
      "2n d",
      "fun ding",
      "bu ild",
      "complex ity",
      "log ical",
      "G od",
      "S ha",
      "mid dle",
      "deriv ative",
      "sust ainable",
      "facil it",
      "P sych",
      "In t",
      "Sever al",
      "B rown",
      "re ver",
      "cult ures",
      "measure ments",
      "inv ent",
      "Desp ite",
      "K e",
      "li br",
      "cont em",
      "aw ard",
      "E T",
      "i ation",
      "w w",
      "mat r",
      "B ul",
      "m _",
      "re sid",
      "omorph ic",
      "competi tion",
      "O cean",
      "S en",
      "construc ted",
      "arg ument",
      "li de",
      "198 0s",
      "contin ue",
      "Scho ol",
      "em ic",
      "architect ure",
      "econom ics",
      "Mart in",
      "sympto ms",
      "e ts",
      "re comm",
      "program ming",
      "phot ons",
      "6 3",
      "acet yl",
      "K h",
      "can on",
      "En lightenment",
      "fem ale",
      "oxy gen",
      "- {\\",
      "H all",
      "I R",
      "m ers",
      "sp ect",
      "exp ect",
      "Islam ic",
      "G r",
      "of t",
      "ab str",
      "occur red",
      "schol ars",
      "Port ug",
      "f ies",
      "ap par",
      "id ed",
      "pe pti",
      "bl oc",
      "co sts",
      "nor thern",
      "advant age",
      "osc ill",
      "B u",
      "uc le",
      "ach ieved",
      "sit u",
      "C C",
      "c is",
      "im ag",
      "form ing",
      "Sec urity",
      "bene fits",
      "discipl ine",
      "conserv ation",
      "spectr um",
      "ar rest",
      "int ended",
      "cont rover",
      "th ings",
      "om a",
      "om atic",
      "cour t",
      "regul atory",
      "distingu ish",
      "C r",
      "E qu",
      "S ym",
      "ent ropy",
      "ot yp",
      "gre es",
      "author ities",
      "uni form",
      "f air",
      "Ma x",
      "0 2",
      "act ual",
      "in come",
      "ver tices",
      "ud es",
      "act or",
      "ons es",
      "tra its",
      "Ph ilos",
      "regard ing",
      "agre ement",
      "launch ed",
      "g ave",
      "p ict",
      "ro ck",
      "fr ag",
      "B an",
      "R ed",
      "e ight",
      "v on",
      "space time",
      "Ind ones",
      "O f",
      "P ac",
      "ec ology",
      "str ength",
      "tran si",
      "mus ical",
      "Vi et",
      "U r",
      "st ability",
      "tr ig",
      "op portun",
      "up per",
      "giv ing",
      "Ad ditionally",
      "Med ical",
      "Jose ph",
      "expl o",
      "carri ed",
      "tele vision",
      "Diff er",
      "expo sure",
      "matr ices",
      "for ward",
      "pro min",
      "ap ers",
      "Pro ject",
      "reduc ing",
      "in variant",
      "us ers",
      "}} }\\",
      "anthrop ology",
      "Eg ypt",
      "T ex",
      "in j",
      "st on",
      "ch i",
      "ut ing",
      "map s",
      "element ary",
      "B ig",
      "go als",
      "chang ing",
      "instr uments",
      "electromag netic",
      "ex cept",
      "ho sp",
      "challeng es",
      "\\ ,",
      "j ob",
      "as i",
      "par adox",
      "rati o",
      "cogn itive",
      "3 00",
      "J ac",
      "U sing",
      "mo de",
      "fe el",
      "Ac ade",
      "plan et",
      "mark ed",
      "cop y",
      "th or",
      "de grad",
      "ch ond",
      "mo ving",
      "ill ustr",
      "cand id",
      "D P",
      "G ames",
      "z one",
      "er ror",
      "ag ents",
      "com pl",
      "des p",
      "M echan",
      "m ach",
      "pe ace",
      "tra dition",
      "cr u",
      "ste in",
      "inst all",
      "stim ul",
      "6 4",
      "us s",
      "mon itor",
      "diag ram",
      "appropri ate",
      "s un",
      "se ud",
      "de grees",
      "resp onses",
      "Ge org",
      "L ag",
      "S U",
      "f old",
      "m ation",
      "at ers",
      "as c",
      "st op",
      "du al",
      "ca us",
      "differenti ation",
      "an es",
      "mi xed",
      "L or",
      "at ell",
      "os is",
      "sign als",
      "arbit rary",
      "9 2",
      "A _",
      "vis ed",
      "bel ong",
      "Vol ume",
      "prop ag",
      "D ar",
      "e es",
      "u an",
      "it a",
      "ac ces",
      "mar ine",
      "char ged",
      "sim ult",
      "sc atter",
      "govern ments",
      "cap able",
      "death s",
      "kill ed",
      "w ent",
      "ar ts",
      "om er",
      "nucle us",
      "9 4",
      "V ic",
      "re h",
      "ther mal",
      "ang ular",
      "neur ons",
      "D ata",
      "N F",
      "com ing",
      "ot a",
      "Ne tw",
      "g ate",
      "wh ales",
      "ak es",
      "cent uries",
      "fe ed",
      "iev al",
      "Sci ences",
      "pur poses",
      "d y",
      "ra ft",
      "s afety",
      "ac ellular",
      "ator ial",
      "inv as",
      "require ments",
      "colon ial",
      "desp ite",
      "T ran",
      "ic y",
      "The ir",
      "og enetic",
      "direc tor",
      "pro v",
      "vis ions",
      "parame ter",
      "coordin ates",
      "B re",
      "wh y",
      "temper atures",
      "prac tical",
      "coupl ing",
      "Clim ate",
      "subsequ ent",
      "vacu um",
      "S aint",
      "par ks",
      "Wh ite",
      "point ed",
      "hist one",
      "iden tical",
      "D utch",
      "n ers",
      "ed ges",
      "con sci",
      "initi ally",
      "ogen esis",
      "lym ph",
      "J er",
      "S R",
      "l u",
      "ph ag",
      "oc ity",
      "acc um",
      "offic e",
      "B ang",
      "un certain",
      "fl at",
      "vir us",
      "uk ary",
      "im al",
      "ax is",
      "Cur r",
      "plann ing",
      "f ast",
      "ha ir",
      "Con serv",
      "confl ict",
      "ca using",
      "demo cratic",
      "5 8",
      "S outhern",
      "in i",
      "un known",
      "An alysis",
      "view s",
      "di o",
      "com mut",
      "dev ice",
      "Philip p",
      "spor ts",
      "exer c",
      "h ous",
      "n i",
      "mo tions",
      "employ ed",
      "increasing ly",
      "ir on",
      "ang er",
      "le m",
      "neigh bor",
      "H or",
      "M ental"
    ]
  }
}